<unk>	0
<s>	0
</s>	0
<pad>	0
<0x00>	0
<0x01>	0
<0x02>	0
<0x03>	0
<0x04>	0
<0x05>	0
<0x06>	0
<0x07>	0
<0x08>	0
<0x09>	0
<0x0A>	0
<0x0B>	0
<0x0C>	0
<0x0D>	0
<0x0E>	0
<0x0F>	0
<0x10>	0
<0x11>	0
<0x12>	0
<0x13>	0
<0x14>	0
<0x15>	0
<0x16>	0
<0x17>	0
<0x18>	0
<0x19>	0
<0x1A>	0
<0x1B>	0
<0x1C>	0
<0x1D>	0
<0x1E>	0
<0x1F>	0
<0x20>	0
<0x21>	0
<0x22>	0
<0x23>	0
<0x24>	0
<0x25>	0
<0x26>	0
<0x27>	0
<0x28>	0
<0x29>	0
<0x2A>	0
<0x2B>	0
<0x2C>	0
<0x2D>	0
<0x2E>	0
<0x2F>	0
<0x30>	0
<0x31>	0
<0x32>	0
<0x33>	0
<0x34>	0
<0x35>	0
<0x36>	0
<0x37>	0
<0x38>	0
<0x39>	0
<0x3A>	0
<0x3B>	0
<0x3C>	0
<0x3D>	0
<0x3E>	0
<0x3F>	0
<0x40>	0
<0x41>	0
<0x42>	0
<0x43>	0
<0x44>	0
<0x45>	0
<0x46>	0
<0x47>	0
<0x48>	0
<0x49>	0
<0x4A>	0
<0x4B>	0
<0x4C>	0
<0x4D>	0
<0x4E>	0
<0x4F>	0
<0x50>	0
<0x51>	0
<0x52>	0
<0x53>	0
<0x54>	0
<0x55>	0
<0x56>	0
<0x57>	0
<0x58>	0
<0x59>	0
<0x5A>	0
<0x5B>	0
<0x5C>	0
<0x5D>	0
<0x5E>	0
<0x5F>	0
<0x60>	0
<0x61>	0
<0x62>	0
<0x63>	0
<0x64>	0
<0x65>	0
<0x66>	0
<0x67>	0
<0x68>	0
<0x69>	0
<0x6A>	0
<0x6B>	0
<0x6C>	0
<0x6D>	0
<0x6E>	0
<0x6F>	0
<0x70>	0
<0x71>	0
<0x72>	0
<0x73>	0
<0x74>	0
<0x75>	0
<0x76>	0
<0x77>	0
<0x78>	0
<0x79>	0
<0x7A>	0
<0x7B>	0
<0x7C>	0
<0x7D>	0
<0x7E>	0
<0x7F>	0
<0x80>	0
<0x81>	0
<0x82>	0
<0x83>	0
<0x84>	0
<0x85>	0
<0x86>	0
<0x87>	0
<0x88>	0
<0x89>	0
<0x8A>	0
<0x8B>	0
<0x8C>	0
<0x8D>	0
<0x8E>	0
<0x8F>	0
<0x90>	0
<0x91>	0
<0x92>	0
<0x93>	0
<0x94>	0
<0x95>	0
<0x96>	0
<0x97>	0
<0x98>	0
<0x99>	0
<0x9A>	0
<0x9B>	0
<0x9C>	0
<0x9D>	0
<0x9E>	0
<0x9F>	0
<0xA0>	0
<0xA1>	0
<0xA2>	0
<0xA3>	0
<0xA4>	0
<0xA5>	0
<0xA6>	0
<0xA7>	0
<0xA8>	0
<0xA9>	0
<0xAA>	0
<0xAB>	0
<0xAC>	0
<0xAD>	0
<0xAE>	0
<0xAF>	0
<0xB0>	0
<0xB1>	0
<0xB2>	0
<0xB3>	0
<0xB4>	0
<0xB5>	0
<0xB6>	0
<0xB7>	0
<0xB8>	0
<0xB9>	0
<0xBA>	0
<0xBB>	0
<0xBC>	0
<0xBD>	0
<0xBE>	0
<0xBF>	0
<0xC0>	0
<0xC1>	0
<0xC2>	0
<0xC3>	0
<0xC4>	0
<0xC5>	0
<0xC6>	0
<0xC7>	0
<0xC8>	0
<0xC9>	0
<0xCA>	0
<0xCB>	0
<0xCC>	0
<0xCD>	0
<0xCE>	0
<0xCF>	0
<0xD0>	0
<0xD1>	0
<0xD2>	0
<0xD3>	0
<0xD4>	0
<0xD5>	0
<0xD6>	0
<0xD7>	0
<0xD8>	0
<0xD9>	0
<0xDA>	0
<0xDB>	0
<0xDC>	0
<0xDD>	0
<0xDE>	0
<0xDF>	0
<0xE0>	0
<0xE1>	0
<0xE2>	0
<0xE3>	0
<0xE4>	0
<0xE5>	0
<0xE6>	0
<0xE7>	0
<0xE8>	0
<0xE9>	0
<0xEA>	0
<0xEB>	0
<0xEC>	0
<0xED>	0
<0xEE>	0
<0xEF>	0
<0xF0>	0
<0xF1>	0
<0xF2>	0
<0xF3>	0
<0xF4>	0
<0xF5>	0
<0xF6>	0
<0xF7>	0
<0xF8>	0
<0xF9>	0
<0xFA>	0
<0xFB>	0
<0xFC>	0
<0xFD>	0
<0xFE>	0
<0xFF>	0
▁a	-0
in	-1
▁s	-2
er	-3
▁b	-4
ing	-5
th	-6
on	-7
nd	-8
▁w	-9
re	-10
le	-11
at	-12
▁c	-13
▁f	-14
la	-15
▁p	-16
or	-17
▁A	-18
ar	-19
▁d	-20
▁and	-21
is	-22
en	-23
▁t	-24
▁in	-25
es	-26
it	-27
ed	-28
▁wi	-29
▁with	-30
ro	-31
al	-32
▁o	-33
an	-34
ur	-35
▁m	-36
ic	-37
▁th	-38
ge	-39
▁the	-40
▁on	-41
ac	-42
▁T	-43
ho	-44
eat	-45
ig	-46
he	-47
▁feat	-48
▁"	-49
lay	-50
▁of	-51
▁bo	-52
as	-53
▁g	-54
age	-55
▁co	-56
▁v	-57
im	-58
il	-59
▁dis	-60
ion	-61
▁st	-62
lo	-63
us	-64
▁re	-65
▁disp	-66
▁display	-67
et	-68
▁sho	-69
el	-70
uring	-71
ers	-72
▁The	-73
▁show	-74
ent	-75
un	-76
▁im	-77
▁featuring	-78
ra	-79
▁n	-80
▁image	-81
res	-82
▁la	-83
rou	-84
all	-85
st	-86
ack	-87
tt	-88
id	-89
led	-90
lu	-91
ign	-92
round	-93
ir	-94
ck	-95
ts	-96
ch	-97
▁to	-98
▁h	-99
▁wh	-100
am	-101
ul	-102
bo	-103
and	-104
igh	-105
▁S	-106
ures	-107
ct	-108
ver	-109
ear	-110
▁an	-111
▁bott	-112
▁C	-113
ok	-114
if	-115
ard	-116
ble	-117
ite	-118
od	-119
▁bottle	-120
orm	-121
▁l	-122
▁e	-123
▁is	-124
▁features	-125
ad	-126
▁back	-127
▁sp	-128
ot	-129
ter	-130
▁for	-131
ation	-132
ld	-133
ve	-134
om	-135
rom	-136
▁lab	-137
ide	-138
▁by	-139
▁col	-140
reen	-141
▁B	-142
ous	-143
um	-144
ark	-145
ain	-146
▁po	-147
cas	-148
ile	-149
ss	-150
▁con	-151
wo	-152
ground	-153
▁un	-154
,"	-155
▁shows	-156
▁te	-157
▁des	-158
▁sc	-159
ari	-160
▁white	-161
▁background	-162
▁be	-163
▁red	-164
▁sur	-165
▁showcas	-166
its	-167
ight	-168
▁color	-169
▁book	-170
iform	-171
▁vari	-172
▁uniform	-173
lue	-174
ey	-175
ful	-176
xt	-177
▁showcasing	-178
▁blue	-179
ball	-180
▁ho	-181
op	-182
ace	-183
lack	-184
▁ta	-185
mp	-186
▁M	-187
▁sign	-188
▁various	-189
▁play	-190
board	-191
▁P	-192
ding	-193
▁are	-194
▁black	-195
eled	-196
ut	-197
▁labeled	-198
▁design	-199
▁y	-200
▁displays	-201
ly	-202
ag	-203
ap	-204
▁at	-205
ood	-206
ce	-207
▁stand	-208
low	-209
lass	-210
▁clo	-211
▁de	-212
▁colorful	-213
ip	-214
ran	-215
▁displaying	-216
ate	-217
▁displayed	-218
▁k	-219
up	-220
▁prom	-221
▁man	-222
ase	-223
orts	-224
ther	-225
▁mo	-226
▁F	-227
▁r	-228
hon	-229
int	-230
ine	-231
ist	-232
ive	-233
atch	-234
▁green	-235
▁Two	-236
▁wear	-237
▁sports	-238
▁tit	-239
▁L	-240
▁glass	-241
."	-242
▁R	-243
ib	-244
▁D	-245
ction	-246
ment	-247
▁fo	-248
ill	-249
ure	-250
▁wood	-251
▁comp	-252
▁hold	-253
▁text	-254
▁sm	-255
hone	-256
▁base	-257
▁stands	-258
qu	-259
▁cont	-260
▁wooden	-261
face	-262
▁sh	-263
pp	-264
▁j	-265
▁ch	-266
▁table	-267
▁vis	-268
art	-269
ating	-270
se	-271
ff	-272
▁G	-273
▁lo	-274
▁al	-275
▁bu	-276
ting	-277
row	-278
ible	-279
▁baseball	-280
▁or	-281
▁fi	-282
intage	-283
▁H	-284
▁ar	-285
▁ind	-286
eld	-287
▁post	-288
ellow	-289
▁wearing	-290
▁surround	-291
▁visible	-292
▁inc	-293
▁near	-294
▁yellow	-295
▁key	-296
▁beer	-297
▁inclu	-298
▁W	-299
▁ag	-300
▁bottles	-301
▁its	-302
▁N	-303
▁vintage	-304
▁surrounded	-305
ong	-306
iv	-307
ore	-308
ber	-309
▁set	-310
▁field	-311
ainst	-312
ol	-313
▁against	-314
▁surface	-315
ice	-316
▁lar	-317
▁while	-318
bile	-319
▁pro	-320
ne	-321
ies	-322
pt	-323
▁wom	-324
▁mobile	-325
▁titled	-326
▁I	-327
ink	-328
arked	-329
▁tra	-330
▁large	-331
ay	-332
iz	-333
▁including	-334
▁from	-335
ree	-336
▁dr	-337
hel	-338
hic	-339
ust	-340
▁E	-341
▁hand	-342
ie	-343
▁phone	-344
▁box	-345
▁two	-346
▁ad	-347
▁le	-348
▁ne	-349
▁screen	-350
▁O	-351
▁num	-352
les	-353
▁sk	-354
▁poster	-355
▁gra	-356
ail	-357
ame	-358
erson	-359
ess	-360
ated	-361
ial	-362
side	-363
▁indic	-364
▁bes	-365
go	-366
▁sits	-367
▁beside	-368
▁person	-369
▁fil	-370
▁en	-371
▁cle	-372
▁cover	-373
▁air	-374
ity	-375
▁buil	-376
ow	-377
ach	-378
▁player	-379
cc	-380
ors	-381
inent	-382
▁abo	-383
▁promot	-384
by	-385
▁building	-386
▁prominent	-387
te	-388
▁se	-389
cor	-390
▁one	-391
ron	-392
ung	-393
ric	-394
▁filled	-395
▁woman	-396
▁parked	-397
▁read	-398
▁along	-399
▁det	-400
ak	-401
uter	-402
est	-403
▁V	-404
▁clear	-405
▁books	-406
▁uniforms	-407
▁li	-408
▁app	-409
▁computer	-410
ind	-411
rant	-412
ft	-413
▁label	-414
▁contain	-415
reet	-416
▁holds	-417
cus	-418
▁watch	-419
▁vib	-420
irt	-421
▁ro	-422
▁pla	-423
▁keyboard	-424
▁shel	-425
▁vibrant	-426
▁dark	-427
▁J	-428
▁go	-429
▁An	-430
ans	-431
▁logo	-432
em	-433
▁indicating	-434
form	-435
▁ve	-436
ish	-437
ort	-438
ater	-439
ia	-440
▁high	-441
ration	-442
▁Th	-443
▁nearby	-444
▁next	-445
ru	-446
light	-447
▁so	-448
▁decor	-449
▁op	-450
▁wall	-451
▁wine	-452
▁rest	-453
▁clock	-454
▁car	-455
ative	-456
ork	-457
itch	-458
▁players	-459
ence	-460
ee	-461
ene	-462
ass	-463
ud	-464
ant	-465
▁sil	-466
▁other	-467
▁street	-468
act	-469
vent	-470
▁prominently	-471
ition	-472
▁spe	-473
ptop	-474
▁laptop	-475
▁drink	-476
co	-477
▁yo	-478
▁showing	-479
▁game	-480
ons	-481
▁pl	-482
ersey	-483
▁alongside	-484
lee	-485
ire	-486
sc	-487
▁open	-488
▁sky	-489
▁jersey	-490
ime	-491
▁slee	-492
▁ex	-493
und	-494
ling	-495
▁acc	-496
ress	-497
ical	-498
▁setting	-499
ale	-500
▁br	-501
▁pe	-502
▁St	-503
ph	-504
▁pre	-505
are	-506
▁event	-507
ions	-508
▁inter	-509
▁detail	-510
tis	-511
▁light	-512
▁vehic	-513
ront	-514
▁store	-515
▁silver	-516
ug	-517
▁mon	-518
▁K	-519
▁young	-520
ram	-521
▁men	-522
ary	-523
ents	-524
ves	-525
▁sleek	-526
▁highlight	-527
ult	-528
rand	-529
▁Three	-530
ick	-531
fer	-532
▁decorative	-533
▁mod	-534
▁holding	-535
▁ele	-536
▁cap	-537
▁shirt	-538
▁bus	-539
alk	-540
ople	-541
▁not	-542
vertis	-543
ates	-544
▁do	-545
ian	-546
▁monit	-547
▁advertis	-548
ffic	-549
rit	-550
▁he	-551
▁plate	-552
▁water	-553
▁number	-554
▁airp	-555
▁gold	-556
▁about	-557
▁scene	-558
lar	-559
▁foot	-560
▁promoting	-561
als	-562
air	-563
The	-564
▁highlighting	-565
os	-566
ub	-567
▁am	-568
ange	-569
▁people	-570
ings	-571
ke	-572
ry	-573
▁U	-574
▁can	-575
▁close	-576
▁side	-577
▁fla	-578
ages	-579
▁brand	-580
pic	-581
▁prep	-582
▁shelf	-583
illboard	-584
▁ill	-585
▁illust	-586
ms	-587
▁front	-588
ord	-589
▁out	-590
▁small	-591
▁gr	-592
way	-593
▁ball	-594
ely	-595
ery	-596
rop	-597
▁per	-598
▁time	-599
du	-600
▁pos	-601
og	-602
red	-603
ven	-604
▁char	-605
rip	-606
lection	-607
roup	-608
▁orange	-609
▁tax	-610
▁traffic	-611
▁part	-612
ments	-613
▁int	-614
iling	-615
▁pr	-616
▁group	-617
▁it	-618
ern	-619
unt	-620
▁dist	-621
me	-622
pe	-623
▁team	-624
let	-625
▁monitor	-626
▁art	-627
▁Ch	-628
ience	-629
▁mult	-630
ines	-631
▁met	-632
▁bright	-633
▁details	-634
ium	-635
▁run	-636
▁football	-637
▁Co	-638
ally	-639
min	-640
▁as	-641
▁emp	-642
▁tre	-643
our	-644
ital	-645
▁match	-646
ask	-647
lane	-648
▁smiling	-649
▁coin	-650
sh	-651
veral	-652
▁fig	-653
▁focus	-654
ab	-655
▁we	-656
▁ite	-657
▁arran	-658
av	-659
rown	-660
▁cre	-661
▁stack	-662
▁vehicle	-663
ged	-664
▁att	-665
▁sty	-666
▁produ	-667
▁sn	-668
ations	-669
▁pitch	-670
▁che	-671
▁eng	-672
▁depic	-673
▁reg	-674
ced	-675
cts	-676
ell	-677
orn	-678
▁boy	-679
▁pres	-680
formation	-681
raft	-682
▁mark	-683
▁trees	-684
indow	-685
ER	-686
iple	-687
▁airplane	-688
▁top	-689
omp	-690
igital	-691
ast	-692
▁off	-693
▁multiple	-694
▁card	-695
atter	-696
ator	-697
ath	-698
▁items	-699
phic	-700
▁ser	-701
▁above	-702
ied	-703
▁information	-704
istor	-705
▁pack	-706
▁discus	-707
▁illustration	-708
▁com	-709
▁und	-710
▁bold	-711
▁grass	-712
▁collection	-713
ized	-714
▁discuss	-715
▁me	-716
▁arranged	-717
ond	-718
rol	-719
▁ref	-720
▁page	-721
▁their	-722
▁modern	-723
br	-724
mer	-725
▁Bo	-726
ang	-727
▁billboard	-728
ele	-729
▁tr	-730
drop	-731
ffee	-732
▁stop	-733
▁backdrop	-734
craft	-735
▁food	-736
▁under	-737
ured	-738
ional	-739
asket	-740
▁gray	-741
▁colors	-742
▁designs	-743
▁reading	-744
ctive	-745
▁us	-746
other	-747
ri	-748
ather	-749
▁several	-750
bs	-751
▁desk	-752
▁basket	-753
able	-754
▁face	-755
▁graphic	-756
iew	-757
ple	-758
lish	-759
sp	-760
▁up	-761
▁placed	-762
▁window	-763
▁digital	-764
▁tele	-765
vis	-766
▁mil	-767
▁Ro	-768
work	-769
▁another	-770
▁coffee	-771
▁distin	-772
ren	-773
▁ic	-774
▁cam	-775
ance	-776
▁walk	-777
ctions	-778
▁present	-779
vers	-780
ompan	-781
▁Y	-782
▁sy	-783
ou	-784
irl	-785
ai	-786
▁glo	-787
lan	-788
ning	-789
▁cele	-790
istration	-791
▁aircraft	-792
yc	-793
▁lett	-794
rowd	-795
▁ath	-796
▁mus	-797
▁was	-798
▁butt	-799
az	-800
▁rests	-801
ps	-802
▁liqu	-803
▁during	-804
▁histor	-805
▁registration	-806
thing	-807
▁control	-808
ual	-809
ially	-810
izing	-811
▁dial	-812
▁brown	-813
aging	-814
▁partially	-815
au	-816
ights	-817
▁taxi	-818
ue	-819
▁mess	-820
▁conven	-821
▁bar	-822
▁war	-823
▁area	-824
▁land	-825
▁class	-826
▁titles	-827
▁city	-828
▁convenience	-829
▁labels	-830
acks	-831
▁exp	-832
gether	-833
gan	-834
ild	-835
▁like	-836
▁crowd	-837
▁together	-838
ix	-839
lumin	-840
▁road	-841
vice	-842
▁signs	-843
▁compet	-844
▁whiteboard	-845
has	-846
▁sw	-847
writ	-848
unter	-849
▁train	-850
▁basketball	-851
▁ty	-852
▁celebr	-853
▁qu	-854
ific	-855
lic	-856
▁cal	-857
▁advertise	-858
▁container	-859
▁promotional	-860
IN	-861
ten	-862
no	-863
▁fl	-864
▁tin	-865
▁view	-866
io	-867
ces	-868
▁emphas	-869
▁counter	-870
▁accompan	-871
▁buildings	-872
gy	-873
▁head	-874
▁bat	-875
▁cas	-876
▁fram	-877
▁over	-878
▁numer	-879
▁reads	-880
▁drinks	-881
▁nam	-882
▁sit	-883
ators	-884
▁clothing	-885
ew	-886
ann	-887
itary	-888
▁pink	-889
▁score	-890
ular	-891
▁waste	-892
▁televis	-893
▁position	-894
ert	-895
▁products	-896
▁Four	-897
ost	-898
▁ra	-899
▁rel	-900
▁perform	-901
▁military	-902
ares	-903
▁tow	-904
▁shelves	-905
▁eleg	-906
▁jerseys	-907
▁accompanied	-908
ens	-909
▁smart	-910
▁resting	-911
▁figure	-912
af	-913
do	-914
hot	-915
ural	-916
▁ent	-917
▁sup	-918
itchen	-919
▁boxes	-920
ape	-921
els	-922
▁One	-923
▁athlet	-924
▁branding	-925
oon	-926
aper	-927
▁keys	-928
▁television	-929
▁below	-930
ote	-931
▁marked	-932
▁prepares	-933
uit	-934
▁women	-935
▁discussing	-936
bers	-937
rows	-938
▁elegant	-939
hones	-940
▁work	-941
▁cloud	-942
▁mount	-943
▁kitchen	-944
▁positioned	-945
era	-946
▁il	-947
▁both	-948
▁It	-949
▁interface	-950
AR	-951
que	-952
ogra	-953
▁beh	-954
▁notes	-955
▁wears	-956
▁illumin	-957
▁emphasizing	-958
▁Se	-959
▁them	-960
▁strip	-961
▁inside	-962
ior	-963
ome	-964
phone	-965
▁cheer	-966
ets	-967
▁ur	-968
▁bever	-969
▁behind	-970
one	-971
▁cans	-972
▁child	-973
▁liquid	-974
de	-975
▁flag	-976
▁word	-977
▁outdo	-978
▁grassy	-979
ST	-980
amp	-981
ams	-982
rist	-983
▁cup	-984
▁classic	-985
je	-986
top	-987
▁bl	-988
▁opt	-989
▁phot	-990
▁tall	-991
▁golden	-992
out	-993
▁pur	-994
▁rem	-995
ade	-996
▁advertising	-997
ON	-998
nt	-999
aring	-1000
iffer	-1001
▁stick	-1002
ident	-1003
▁catch	-1004
▁three	-1005
ctators	-1006
▁differ	-1007
ns	-1008
ross	-1009
stru	-1010
istic	-1011
▁buttons	-1012
mbo	-1013
ivers	-1014
▁seat	-1015
▁illuminated	-1016
▁mag	-1017
▁message	-1018
ograph	-1019
ash	-1020
uch	-1021
▁girl	-1022
▁speak	-1023
▁office	-1024
▁options	-1025
▁different	-1026
▁each	-1027
rap	-1028
▁equ	-1029
▁med	-1030
▁min	-1031
▁cart	-1032
▁hair	-1033
▁lit	-1034
▁hands	-1035
▁playful	-1036
ls	-1037
▁home	-1038
▁name	-1039
▁supp	-1040
▁amber	-1041
▁i	-1042
ich	-1043
irc	-1044
▁station	-1045
urt	-1046
▁soft	-1047
▁ge	-1048
ices	-1049
▁loc	-1050
▁focused	-1051
▁No	-1052
oy	-1053
ola	-1054
▁textured	-1055
ars	-1056
ban	-1057
rew	-1058
ered	-1059
less	-1060
▁flo	-1061
▁ste	-1062
▁busy	-1063
▁meas	-1064
▁ready	-1065
rick	-1066
▁organ	-1067
▁camera	-1068
lored	-1069
▁numbers	-1070
▁stacked	-1071
end	-1072
isk	-1073
raw	-1074
tion	-1075
rance	-1076
mb	-1077
ty	-1078
▁lik	-1079
▁van	-1080
▁circ	-1081
▁letters	-1082
▁scoreboard	-1083
▁spectators	-1084
vel	-1085
cial	-1086
adium	-1087
▁icons	-1088
▁symbo	-1089
▁likely	-1090
▁vehicles	-1091
ere	-1092
ump	-1093
▁Sp	-1094
aged	-1095
▁dire	-1096
▁park	-1097
▁related	-1098
▁preparing	-1099
AN	-1100
▁Te	-1101
ious	-1102
▁containing	-1103
▁ed	-1104
ccer	-1105
▁fun	-1106
▁his	-1107
▁sun	-1108
ety	-1109
ges	-1110
▁Be	-1111
▁glove	-1112
▁magaz	-1113
▁music	-1114
▁round	-1115
▁landsc	-1116
ats	-1117
uts	-1118
▁date	-1119
acters	-1120
▁soccer	-1121
▁depicts	-1122
▁athletic	-1123
▁characters	-1124
▁mug	-1125
dition	-1126
▁ice	-1127
▁rul	-1128
acter	-1129
meric	-1130
▁that	-1131
▁dress	-1132
▁cloudy	-1133
▁glasses	-1134
RE	-1135
ley	-1136
ches	-1137
▁windows	-1138
▁containers	-1139
▁Ar	-1140
iss	-1141
▁bann	-1142
▁equip	-1143
▁character	-1144
▁night	-1145
ca	-1146
▁LG	-1147
▁iP	-1148
▁cent	-1149
▁board	-1150
▁lights	-1151
▁historical	-1152
book	-1153
ailed	-1154
▁list	-1155
▁accents	-1156
rig	-1157
▁In	-1158
▁hang	-1159
▁cream	-1160
▁metal	-1161
per	-1162
▁Al	-1163
▁ruler	-1164
▁signage	-1165
▁greenery	-1166
▁handwrit	-1167
ory	-1168
ined	-1169
oking	-1170
amsung	-1171
▁detailed	-1172
we	-1173
iles	-1174
▁neat	-1175
▁urban	-1176
ational	-1177
ique	-1178
land	-1179
▁pan	-1180
oster	-1181
▁pass	-1182
▁purple	-1183
▁Samsung	-1184
▁handwritten	-1185
nate	-1186
▁stadium	-1187
▁distinctive	-1188
ank	-1189
ier	-1190
use	-1191
▁case	-1192
▁Americ	-1193
▁neatly	-1194
▁depicting	-1195
ush	-1196
ject	-1197
▁blur	-1198
▁coins	-1199
▁device	-1200
ake	-1201
cul	-1202
iti	-1203
case	-1204
▁Col	-1205
▁bag	-1206
▁sug	-1207
▁comm	-1208
▁countertop	-1209
gh	-1210
aint	-1211
▁print	-1212
▁advertisement	-1213
▁Ale	-1214
ories	-1215
▁mach	-1216
▁attire	-1217
▁equipment	-1218
▁hum	-1219
▁wrist	-1220
▁patter	-1221
▁snacks	-1222
▁blurred	-1223
▁packaging	-1224
▁smartphone	-1225
▁&	-1226
ise	-1227
atic	-1228
▁new	-1229
▁pen	-1230
▁entrance	-1231
oth	-1232
▁ph	-1233
line	-1234
▁cur	-1235
▁her	-1236
▁flow	-1237
▁snow	-1238
▁tran	-1239
▁casual	-1240
▁framed	-1241
▁ornate	-1242
▁parking	-1243
▁stylish	-1244
ger	-1245
ivid	-1246
▁fro	-1247
▁toy	-1248
▁cars	-1249
▁scen	-1250
▁calcul	-1251
▁elements	-1252
▁nav	-1253
edest	-1254
▁detailing	-1255
pad	-1256
Cola	-1257
ials	-1258
▁typ	-1259
ature	-1260
▁prog	-1261
▁Poster	-1262
ards	-1263
ckey	-1264
ctiv	-1265
ricate	-1266
▁paper	-1267
ng	-1268
▁runway	-1269
▁intricate	-1270
man	-1271
urn	-1272
uals	-1273
▁hel	-1274
▁map	-1275
▁jack	-1276
▁left	-1277
▁access	-1278
▁pedest	-1279
▁cardboard	-1280
AL	-1281
ume	-1282
▁di	-1283
cture	-1284
ering	-1285
▁arch	-1286
ved	-1287
▁no	-1288
▁sim	-1289
▁Coca	-1290
ference	-1291
▁pitcher	-1292
▁striped	-1293
▁distinct	-1294
ins	-1295
ities	-1296
▁runs	-1297
▁taxis	-1298
▁title	-1299
▁artwork	-1300
▁catcher	-1301
▁em	-1302
ives	-1303
▁res	-1304
▁sod	-1305
thers	-1306
▁outs	-1307
▁suit	-1308
▁hockey	-1309
▁phones	-1310
▁shorts	-1311
▁compete	-1312
▁outside	-1313
▁Billboard	-1314
!"	-1315
ears	-1316
▁fac	-1317
▁cartoon	-1318
▁Sh	-1319
▁posters	-1320
▁weather	-1321
▁circular	-1322
▁standing	-1323
▁landscape	-1324
EN	-1325
ik	-1326
bum	-1327
▁flav	-1328
▁court	-1329
▁model	-1330
▁showcases	-1331
AT	-1332
olu	-1333
str	-1334
▁Un	-1335
ouse	-1336
shirt	-1337
▁indo	-1338
▁refle	-1339
▁numerals	-1340
get	-1341
▁Re	-1342
ited	-1343
ffiti	-1344
▁race	-1345
▁whisk	-1346
▁printed	-1347
▁organized	-1348
▁celebrating	-1349
OP	-1350
▁Q	-1351
▁Book	-1352
▁pose	-1353
▁individ	-1354
▁perf	-1355
▁lined	-1356
▁touch	-1357
▁bookcase	-1358
▁children	-1359
▁interior	-1360
▁illustrations	-1361
ned	-1362
thy	-1363
▁Sc	-1364
ense	-1365
▁bow	-1366
▁mar	-1367
▁pol	-1368
▁ret	-1369
riger	-1370
▁pric	-1371
▁tech	-1372
▁track	-1373
▁remote	-1374
ditional	-1375
▁mounted	-1376
ife	-1377
▁Mo	-1378
▁Pe	-1379
irts	-1380
allic	-1381
▁activ	-1382
▁brick	-1383
▁named	-1384
▁poses	-1385
▁space	-1386
▁seated	-1387
▁graphics	-1388
dy	-1389
own	-1390
▁Go	-1391
▁sl	-1392
ness	-1393
▁Con	-1394
▁New	-1395
rough	-1396
tions	-1397
vices	-1398
▁note	-1399
▁ship	-1400
▁names	-1401
▁others	-1402
▁metallic	-1403
▁refriger	-1404
▁(	-1405
▁De	-1406
oman	-1407
▁sub	-1408
▁insc	-1409
▁images	-1410
▁beverage	-1411
▁contains	-1412
ny	-1413
arm	-1414
▁He	-1415
iting	-1416
▁bust	-1417
▁soda	-1418
▁among	-1419
▁conne	-1420
colored	-1421
▁illustr	-1422
▁graffiti	-1423
▁markings	-1424
▁calculator	-1425
iny	-1426
lage	-1427
lies	-1428
velo	-1429
▁Mar	-1430
▁tru	-1431
▁fans	-1432
▁fore	-1433
▁writ	-1434
▁empty	-1435
▁walks	-1436
▁express	-1437
▁Br	-1438
▁Le	-1439
ining	-1440
▁door	-1441
▁stain	-1442
▁instru	-1443
▁engaged	-1444
▁machine	-1445
▁magazine	-1446
col	-1447
stic	-1448
▁Air	-1449
ively	-1450
watch	-1451
▁cross	-1452
▁American	-1453
▁individuals	-1454
OR	-1455
ka	-1456
ict	-1457
ral	-1458
ton	-1459
yle	-1460
cting	-1461
▁four	-1462
▁floor	-1463
▁covers	-1464
▁markers	-1465
bser	-1466
oral	-1467
▁clu	-1468
▁mot	-1469
▁tag	-1470
▁male	-1471
▁jacket	-1472
▁sugges	-1473
▁bustling	-1474
IC	-1475
cum	-1476
hib	-1477
ner	-1478
lead	-1479
▁aud	-1480
▁menu	-1481
▁stru	-1482
▁type	-1483
▁Roman	-1484
▁chair	-1485
▁steel	-1486
▁warning	-1487
ese	-1488
ics	-1489
ism	-1490
ony	-1491
ull	-1492
▁gu	-1493
▁old	-1494
▁obser	-1495
▁truck	-1496
▁through	-1497
▁walking	-1498
ave	-1499
des	-1500
▁ob	-1501
coho	-1502
imal	-1503
▁fem	-1504
▁row	-1505
▁styl	-1506
▁strap	-1507
▁airport	-1508
▁outdoor	-1509
▁plastic	-1510
uth	-1511
logy	-1512
semb	-1513
▁Red	-1514
▁add	-1515
▁conf	-1516
▁goal	-1517
▁unique	-1518
▁stainless	-1519
alm	-1520
ray	-1521
resh	-1522
▁fin	-1523
▁sto	-1524
▁port	-1525
▁convers	-1526
▁perfume	-1527
mos	-1528
▁vide	-1529
▁mater	-1530
▁banner	-1531
▁female	-1532
▁ground	-1533
▁figures	-1534
▁designed	-1535
▁suggesting	-1536
aur	-1537
▁Jo	-1538
cked	-1539
▁ass	-1540
▁pod	-1541
▁pub	-1542
▁into	-1543
▁appro	-1544
▁navig	-1545
▁action	-1546
▁frothy	-1547
▁themes	-1548
▁supplies	-1549
rel	-1550
onal	-1551
onic	-1552
orous	-1553
▁outf	-1554
▁room	-1555
▁docum	-1556
▁pages	-1557
▁floral	-1558
▁variety	-1559
▁refrigerator	-1560
ike	-1561
ird	-1562
okia	-1563
ware	-1564
wear	-1565
▁ais	-1566
▁has	-1567
▁tim	-1568
mosph	-1569
▁symbol	-1570
▁atmosph	-1571
▁stylized	-1572
ES	-1573
▁Wh	-1574
▁cho	-1575
▁clos	-1576
▁gear	-1577
▁Nokia	-1578
▁photo	-1579
▁creating	-1580
▁foreground	-1581
▁advertisements	-1582
iver	-1583
orld	-1584
ving	-1585
▁def	-1586
▁siz	-1587
ctional	-1588
▁podium	-1589
▁outdoors	-1590
AS	-1591
▁Z	-1592
cing	-1593
▁Five	-1594
▁band	-1595
▁stat	-1596
▁Black	-1597
▁logos	-1598
▁shopp	-1599
▁video	-1600
▁alcoho	-1601
▁simple	-1602
▁throws	-1603
▁measure	-1604
hip	-1605
gers	-1606
icyc	-1607
ides	-1608
▁him	-1609
▁sec	-1610
▁web	-1611
▁hour	-1612
▁plan	-1613
▁right	-1614
▁archite	-1615
aut	-1616
gin	-1617
ils	-1618
head	-1619
▁rac	-1620
▁amid	-1621
screen	-1622
▁comic	-1623
▁speed	-1624
▁scenic	-1625
IT	-1626
pped	-1627
rest	-1628
▁App	-1629
▁mem	-1630
▁rep	-1631
▁bicyc	-1632
▁keypad	-1633
▁smiles	-1634
arb	-1635
cks	-1636
ips	-1637
▁Gu	-1638
cted	-1639
▁Clo	-1640
▁rou	-1641
ility	-1642
▁boys	-1643
▁draw	-1644
▁aisle	-1645
▁paint	-1646
▁resemb	-1647
▁humorous	-1648
▁atmosphere	-1649
ED	-1650
elc	-1651
ging	-1652
lian	-1653
mper	-1654
▁six	-1655
▁str	-1656
▁ter	-1657
▁fest	-1658
▁spec	-1659
▁tree	-1660
▁iPhone	-1661
▁watches	-1662
▁typewrit	-1663
▁resembling	-1664
US	-1665
enn	-1666
ibr	-1667
▁ac	-1668
emed	-1669
iron	-1670
rians	-1671
▁line	-1672
themed	-1673
ttered	-1674
▁using	-1675
▁transp	-1676
▁mountain	-1677
▁beverages	-1678
▁cheerlead	-1679
EL	-1680
OM	-1681
be	-1682
mon	-1683
rib	-1684
ient	-1685
▁Tra	-1686
▁rec	-1687
style	-1688
▁ener	-1689
▁form	-1690
▁prof	-1691
▁album	-1692
attered	-1693
▁artistic	-1694
▁matching	-1695
▁typewriter	-1696
ah	-1697
ett	-1698
ler	-1699
▁cab	-1700
▁sau	-1701
▁fire	-1702
▁gest	-1703
aurant	-1704
▁dated	-1705
▁content	-1706
▁focusing	-1707
▁cluttered	-1708
St	-1709
▁X	-1710
hou	-1711
king	-1712
▁cyc	-1713
▁pow	-1714
viron	-1715
▁shop	-1716
▁Color	-1717
▁elect	-1718
▁refer	-1719
▁setup	-1720
▁personal	-1721
▁presentation	-1722
OL	-1723
lex	-1724
read	-1725
▁lay	-1726
▁phr	-1727
▁slo	-1728
iness	-1729
▁Green	-1730
▁beach	-1731
▁tower	-1732
▁travel	-1733
▁environ	-1734
▁minimal	-1735
▁pedestrians	-1736
cy	-1737
zy	-1738
▁boat	-1739
▁cook	-1740
▁dram	-1741
▁flags	-1742
▁shown	-1743
▁stage	-1744
▁product	-1745
▁conference	-1746
so	-1747
za	-1748
alt	-1749
▁wa	-1750
aker	-1751
cord	-1752
idge	-1753
ists	-1754
▁Cal	-1755
▁fly	-1756
▁tro	-1757
cover	-1758
iving	-1759
▁cond	-1760
▁lies	-1761
▁well	-1762
▁mound	-1763
▁leather	-1764
▁indicates	-1765
▁materials	-1766
ET	-1767
oc	-1768
met	-1769
vie	-1770
ateg	-1771
quare	-1772
▁past	-1773
▁frame	-1774
▁teamm	-1775
riptions	-1776
▁dramatic	-1777
▁monitors	-1778
▁touchscreen	-1779
ily	-1780
len	-1781
ette	-1782
ored	-1783
▁mix	-1784
nding	-1785
▁Park	-1786
▁spir	-1787
▁address	-1788
▁applian	-1789
▁project	-1790
▁specific	-1791
▁scattered	-1792
lor	-1793
ped	-1794
▁US	-1795
ying	-1796
ables	-1797
orned	-1798
▁spac	-1799
▁cabin	-1800
▁pract	-1801
▁$	-1802
oke	-1803
apan	-1804
ming	-1805
port	-1806
▁bet	-1807
▁gam	-1808
▁hat	-1809
▁inv	-1810
▁mic	-1811
▁whe	-1812
▁chocol	-1813
▁techno	-1814
▁Vintage	-1815
▁services	-1816
▁restaurant	-1817
▁environment	-1818
▁instructions	-1819
OU	-1820
of	-1821
ont	-1822
bles	-1823
erry	-1824
▁tur	-1825
▁ump	-1826
armac	-1827
▁bene	-1828
▁rich	-1829
▁some	-1830
▁Apple	-1831
ography	-1832
▁around	-1833
▁defend	-1834
▁envelo	-1835
▁service	-1836
▁confident	-1837
ata	-1838
aped	-1839
erse	-1840
ping	-1841
▁Man	-1842
aches	-1843
apers	-1844
▁Beer	-1845
▁body	-1846
▁conc	-1847
▁Japan	-1848
▁Colorful	-1849
▁traditional	-1850
uc	-1851
ys	-1852
lit	-1853
ugh	-1854
ury	-1855
▁lu	-1856
amic	-1857
ched	-1858
icop	-1859
nder	-1860
ustom	-1861
▁tool	-1862
▁mouse	-1863
▁amidst	-1864
▁batter	-1865
▁lively	-1866
▁record	-1867
▁brightly	-1868
IL	-1869
▁“	-1870
ues	-1871
icip	-1872
ield	-1873
lank	-1874
ster	-1875
ween	-1876
▁all	-1877
front	-1878
▁cand	-1879
ibrary	-1880
onents	-1881
▁adorned	-1882
▁playing	-1883
▁stating	-1884
▁footwear	-1885
▁progress	-1886
▁lettering	-1887
PA	-1888
ala	-1889
der	-1890
iet	-1891
outh	-1892
pack	-1893
room	-1894
stem	-1895
aster	-1896
▁bowl	-1897
▁Close	-1898
▁blank	-1899
▁newsp	-1900
▁topic	-1901
▁attach	-1902
▁commun	-1903
▁drives	-1904
▁engage	-1905
▁silhou	-1906
▁helicop	-1907
▁pitches	-1908
▁sitting	-1909
▁whiskey	-1910
▁patterned	-1911
AM	-1912
yn	-1913
ays	-1914
▁Ex	-1915
▁lim	-1916
▁opp	-1917
▁Fran	-1918
▁Sony	-1919
▁foam	-1920
▁heal	-1921
▁booth	-1922
▁stone	-1923
▁custom	-1924
▁layout	-1925
▁towards	-1926
CH	-1927
aw	-1928
ina	-1929
joy	-1930
set	-1931
▁Ne	-1932
▁We	-1933
▁ab	-1934
▁cr	-1935
ills	-1936
lete	-1937
▁hot	-1938
▁use	-1939
▁caps	-1940
▁rear	-1941
▁prote	-1942
▁bottom	-1943
▁divers	-1944
▁passen	-1945
▁shirts	-1946
▁alcohol	-1947
▁between	-1948
▁screens	-1949
▁includes	-1950
▁performs	-1951
▁confidently	-1952
po	-1953
ider	-1954
ints	-1955
larm	-1956
odka	-1957
▁Bar	-1958
▁blo	-1959
ondon	-1960
▁Brew	-1961
▁auth	-1962
▁care	-1963
▁imag	-1964
▁applic	-1965
▁brands	-1966
▁symbols	-1967
▁technology	-1968
gg	-1969
ym	-1970
STOP	-1971
ries	-1972
▁jet	-1973
agram	-1974
irgin	-1975
▁anno	-1976
▁webs	-1977
phones	-1978
▁check	-1979
▁enjoy	-1980
▁quote	-1981
▁scale	-1982
▁gather	-1983
▁racing	-1984
▁tracks	-1985
▁umpire	-1986
▁interac	-1987
bon	-1988
day	-1989
ift	-1990
utt	-1991
▁Or	-1992
blem	-1993
▁fru	-1994
▁lic	-1995
inter	-1996
agonal	-1997
atural	-1998
▁media	-1999
▁troph	-2000
▁center	-2001
▁temper	-2002
▁topics	-2003
▁interse	-2004
struction	-2005
▁cheering	-2006
▁helicopter	-2007
OT	-2008
ute	-2009
ward	-2010
▁gas	-2011
▁hor	-2012
▁vol	-2013
aling	-2014
▁cock	-2015
▁palm	-2016
▁sail	-2017
▁sold	-2018
inting	-2019
stract	-2020
▁alarm	-2021
▁cards	-2022
▁announ	-2023
▁appears	-2024
▁audience	-2025
▁envelope	-2026
▁historic	-2027
▁shopping	-2028
▁celebrate	-2029
▁chocolate	-2030
ov	-2031
ook	-2032
cket	-2033
hool	-2034
▁Can	-2035
▁Pro	-2036
▁exc	-2037
▁net	-2038
▁oct	-2039
▁par	-2040
orage	-2041
▁cozy	-2042
▁poss	-2043
▁prop	-2044
▁World	-2045
▁ident	-2046
▁offic	-2047
▁emblem	-2048
▁social	-2049
▁Several	-2050
▁cabinet	-2051
▁clearly	-2052
▁covered	-2053
▁festive	-2054
▁imagery	-2055
▁speaker	-2056
▁decorated	-2057
▁billboards	-2058
▁intersection	-2059
OS	-2060
rag	-2061
rey	-2062
▁Ad	-2063
▁Fo	-2064
▁Me	-2065
▁fe	-2066
mber	-2067
omet	-2068
▁Car	-2069
▁ins	-2070
iforn	-2071
▁Cent	-2072
▁desc	-2073
▁path	-2074
▁plat	-2075
lasses	-2076
▁movie	-2077
▁snowy	-2078
ifornia	-2079
▁market	-2080
▁swings	-2081
▁tarmac	-2082
▁indoors	-2083
▁Japanese	-2084
HE	-2085
RA	-2086
ING	-2087
▁cl	-2088
card	-2089
▁Ind	-2090
▁drib	-2091
▁worn	-2092
▁exter	-2093
▁route	-2094
▁London	-2095
▁docked	-2096
▁system	-2097
▁diverse	-2098
▁license	-2099
▁program	-2100
▁storage	-2101
▁function	-2102
▁expression	-2103
▁accessories	-2104
ana	-2105
ino	-2106
cker	-2107
▁del	-2108
aking	-2109
▁jars	-2110
▁long	-2111
▁oper	-2112
▁sung	-2113
▁price	-2114
▁Virgin	-2115
▁events	-2116
▁phrase	-2117
▁portra	-2118
▁diagram	-2119
▁flavors	-2120
▁website	-2121
▁platform	-2122
▁settings	-2123
▁spacious	-2124
▁measuring	-2125
▁octagonal	-2126
▁teammates	-2127
▁California	-2128
▁sunglasses	-2129
▁athleticism	-2130
▁illustrated	-2131
to	-2132
gen	-2133
ken	-2134
mes	-2135
▁Mc	-2136
▁Ph	-2137
ibly	-2138
ival	-2139
walk	-2140
▁Mac	-2141
▁San	-2142
▁Tim	-2143
▁lid	-2144
▁pie	-2145
inger	-2146
▁kick	-2147
▁being	-2148
▁sauce	-2149
▁shiny	-2150
▁iconic	-2151
▁indoor	-2152
▁police	-2153
hibition	-2154
▁beneath	-2155
▁smaller	-2156
▁attached	-2157
▁structure	-2158
▁activities	-2159
▁temperature	-2160
IS	-2161
ige	-2162
▁bal	-2163
▁saf	-2164
▁brew	-2165
▁data	-2166
▁sand	-2167
▁volu	-2168
▁brows	-2169
▁heart	-2170
▁mural	-2171
▁panel	-2172
▁throw	-2173
▁points	-2174
▁cooking	-2175
▁flowers	-2176
▁profile	-2177
▁running	-2178
▁abstract	-2179
▁conversation	-2180
asy	-2181
ffe	-2182
tle	-2183
▁Is	-2184
▁So	-2185
▁TV	-2186
▁ju	-2187
apes	-2188
cess	-2189
irst	-2190
uble	-2191
very	-2192
▁Eng	-2193
▁jar	-2194
ading	-2195
alkee	-2196
oming	-2197
scrap	-2198
▁Blue	-2199
▁They	-2200
▁chron	-2201
▁hangs	-2202
▁sunny	-2203
▁veget	-2204
leyball	-2205
▁chairs	-2206
▁double	-2207
▁colored	-2208
▁goalkee	-2209
▁referee	-2210
▁sticker	-2211
▁taxiing	-2212
▁business	-2213
▁possibly	-2214
▁promotes	-2215
▁volleyball	-2216
ato	-2217
cis	-2218
▁CD	-2219
cour	-2220
▁ble	-2221
▁gym	-2222
▁pot	-2223
▁City	-2224
▁flat	-2225
▁clean	-2226
▁outfit	-2227
▁papers	-2228
▁prices	-2229
▁public	-2230
▁repres	-2231
▁bicycle	-2232
▁library	-2233
▁athletes	-2234
▁document	-2235
▁gestures	-2236
▁particip	-2237
▁weathered	-2238
▁navigation	-2239
▁construction	-2240
IM	-2241
ll	-2242
na	-2243
bor	-2244
clo	-2245
emp	-2246
zel	-2247
▁av	-2248
▁Joh	-2249
▁adj	-2250
▁ale	-2251
▁dim	-2252
▁hit	-2253
▁she	-2254
arent	-2255
earch	-2256
▁Airl	-2257
▁rece	-2258
▁warm	-2259
lished	-2260
▁theme	-2261
▁words	-2262
▁works	-2263
▁finish	-2264
▁flying	-2265
▁health	-2266
▁banners	-2267
▁contact	-2268
▁vending	-2269
▁written	-2270
▁Airlines	-2271
▁exterior	-2272
▁skyscrap	-2273
▁speaking	-2274
▁functions	-2275
▁newspaper	-2276
▁goalkeeper	-2277
▁reflective	-2278
Ch	-2279
LE	-2280
TC	-2281
pr	-2282
las	-2283
▁Po	-2284
▁du	-2285
ised	-2286
ream	-2287
▁Che	-2288
▁Ste	-2289
▁lux	-2290
▁Pale	-2291
▁size	-2292
▁welc	-2293
▁categ	-2294
▁conce	-2295
▁plants	-2296
▁second	-2297
▁section	-2298
▁enjoying	-2299
▁lighting	-2300
▁location	-2301
▁teamwork	-2302
▁mountains	-2303
▁reflecting	-2304
▁chronograph	-2305
ks	-2306
ims	-2307
mas	-2308
▁Ge	-2309
omin	-2310
pper	-2311
tern	-2312
▁Ser	-2313
▁bro	-2314
▁dog	-2315
▁gen	-2316
ennis	-2317
▁atop	-2318
▁bags	-2319
▁calm	-2320
▁cycl	-2321
▁five	-2322
▁star	-2323
▁tank	-2324
vement	-2325
▁Rolex	-2326
▁fresh	-2327
▁closed	-2328
▁flight	-2329
▁gloves	-2330
▁signal	-2331
▁compact	-2332
▁laptops	-2333
ification	-2334
▁bookshel	-2335
▁magazines	-2336
▁selection	-2337
▁minimalist	-2338
▁smartwatch	-2339
▁transparent	-2340
AY	-2341
TY	-2342
app	-2343
rie	-2344
▁Sm	-2345
ants	-2346
bert	-2347
▁day	-2348
▁good	-2349
▁brace	-2350
▁retro	-2351
▁Street	-2352
▁across	-2353
▁energy	-2354
▁posing	-2355
▁stripes	-2356
▁notebook	-2357
▁represent	-2358
▁directions	-2359
▁decorations	-2360
),	-2361
UR	-2362
ky	-2363
▁'	-2364
ero	-2365
olf	-2366
pts	-2367
une	-2368
▁II	-2369
▁Pr	-2370
▁Clu	-2371
▁cos	-2372
chedu	-2373
▁down	-2374
▁reve	-2375
▁shot	-2376
▁tray	-2377
▁ahead	-2378
▁bezel	-2379
▁girls	-2380
▁meter	-2381
▁power	-2382
▁types	-2383
▁vodka	-2384
arkling	-2385
covered	-2386
▁Bright	-2387
▁sunset	-2388
▁tables	-2389
▁hanging	-2390
▁listing	-2391
▁looking	-2392
▁support	-2393
▁bracelet	-2394
▁pointing	-2395
▁portrait	-2396
▁celebrates	-2397
▁passengers	-2398
▁photograph	-2399
▁protective	-2400
▁wristwatch	-2401
▁measurement	-2402
▁architecture	-2403
▁informational	-2404
asc	-2405
elt	-2406
ube	-2407
▁Dr	-2408
agne	-2409
eral	-2410
rain	-2411
rian	-2412
vels	-2413
abric	-2414
erman	-2415
fully	-2416
▁York	-2417
▁apps	-2418
▁crou	-2419
▁pole	-2420
▁ring	-2421
▁seen	-2422
decker	-2423
lights	-2424
▁champ	-2425
▁limit	-2426
▁offer	-2427
▁teams	-2428
▁object	-2429
▁schedu	-2430
iversity	-2431
▁natural	-2432
▁Virginia	-2433
▁electron	-2434
▁stickers	-2435
▁components	-2436
li	-2437
wh	-2438
oms	-2439
▁Lo	-2440
▁ST	-2441
▁Sy	-2442
▁kn	-2443
Book	-2444
mark	-2445
part	-2446
tail	-2447
▁HTC	-2448
▁cig	-2449
▁low	-2450
works	-2451
▁Brit	-2452
▁Gold	-2453
▁corn	-2454
▁held	-2455
▁sale	-2456
▁tail	-2457
aching	-2458
▁White	-2459
▁artic	-2460
▁beige	-2461
▁stove	-2462
▁straw	-2463
▁Window	-2464
▁encour	-2465
▁fabric	-2466
▁safety	-2467
▁school	-2468
▁tennis	-2469
▁wheels	-2470
▁numeric	-2471
▁controls	-2472
▁engaging	-2473
▁sections	-2474
▁silhouette	-2475
▁directional	-2476
IV	-2477
In	-2478
Re	-2479
kin	-2480
pen	-2481
uel	-2482
iner	-2483
ogle	-2484
onde	-2485
ones	-2486
ough	-2487
umps	-2488
▁Com	-2489
▁ben	-2490
▁gar	-2491
▁Sign	-2492
▁dish	-2493
▁flan	-2494
▁milk	-2495
▁roof	-2496
▁stud	-2497
ctural	-2498
iction	-2499
shaped	-2500
▁South	-2501
▁plain	-2502
ication	-2503
ription	-2504
▁Christ	-2505
▁flower	-2506
▁speaks	-2507
▁spirit	-2508
▁trophy	-2509
▁process	-2510
▁skyline	-2511
▁numerous	-2512
▁observes	-2513
▁software	-2514
▁telephone	-2515
AC	-2516
ax	-2517
psi	-2518
ror	-2519
▁Tw	-2520
▁su	-2521
cent	-2522
ille	-2523
berry	-2524
iture	-2525
right	-2526
▁High	-2527
▁John	-2528
▁This	-2529
▁code	-2530
▁lush	-2531
▁stri	-2532
aution	-2533
ynamic	-2534
▁Pepsi	-2535
▁deter	-2536
▁house	-2537
▁pants	-2538
▁snack	-2539
▁facade	-2540
▁whisky	-2541
urniture	-2542
▁Windows	-2543
▁landing	-2544
▁crouches	-2545
▁softball	-2546
▁competing	-2547
▁illustrating	-2548
IG	-2549
oo	-2550
aff	-2551
afé	-2552
ona	-2553
ret	-2554
roc	-2555
tte	-2556
▁El	-2557
akes	-2558
emor	-2559
illa	-2560
ower	-2561
▁And	-2562
▁Lag	-2563
▁Mon	-2564
▁Vol	-2565
aters	-2566
eller	-2567
▁Club	-2568
▁arms	-2569
▁cost	-2570
▁cups	-2571
▁life	-2572
▁oven	-2573
▁pict	-2574
ighter	-2575
▁flank	-2576
▁tools	-2577
▁creamy	-2578
▁gaming	-2579
▁retail	-2580
▁topped	-2581
▁collage	-2582
▁dressed	-2583
▁cocktail	-2584
▁inviting	-2585
▁practice	-2586
▁connected	-2587
No	-2588
OW	-2589
bu	-2590
▁z	-2591
ded	-2592
xas	-2593
ames	-2594
aves	-2595
illi	-2596
lace	-2597
lect	-2598
▁Dis	-2599
▁mat	-2600
▁pay	-2601
▁tea	-2602
ances	-2603
ately	-2604
illed	-2605
jects	-2606
rying	-2607
▁Play	-2608
▁capt	-2609
▁educ	-2610
▁fish	-2611
▁free	-2612
▁meat	-2613
▁nail	-2614
▁rust	-2615
▁scul	-2616
▁tick	-2617
▁used	-2618
▁Times	-2619
▁slide	-2620
▁Square	-2621
▁listed	-2622
▁termin	-2623
▁Traffic	-2624
▁athlete	-2625
▁postcard	-2626
▁appliance	-2627
▁revealing	-2628
▁sparkling	-2629
▁representing	-2630
AD	-2631
GO	-2632
nel	-2633
ngu	-2634
old	-2635
ERTY	-2636
anta	-2637
chan	-2638
ired	-2639
page	-2640
▁IPA	-2641
▁aut	-2642
▁ide	-2643
▁rug	-2644
white	-2645
▁Dell	-2646
▁bird	-2647
▁grey	-2648
▁hood	-2649
▁rail	-2650
▁sket	-2651
ashion	-2652
elling	-2653
▁dials	-2654
▁engra	-2655
▁langu	-2656
▁plays	-2657
▁polit	-2658
▁skies	-2659
▁style	-2660
▁trans	-2661
▁sculpt	-2662
▁slogan	-2663
▁branded	-2664
▁central	-2665
▁crowded	-2666
▁diagrams	-2667
▁dribbles	-2668
▁featured	-2669
▁messages	-2670
▁documents	-2671
▁furniture	-2672
▁approaches	-2673
▁discussion	-2674
▁storefront	-2675
▁performance	-2676
▁inscriptions	-2677
▁architectural	-2678
PS	-2679
Th	-2680
UN	-2681
dle	-2682
uck	-2683
▁Sw	-2684
▁ba	-2685
cast	-2686
iled	-2687
inal	-2688
ison	-2689
izza	-2690
orth	-2691
ults	-2692
▁Old	-2693
▁Val	-2694
▁War	-2695
gency	-2696
ients	-2697
▁anim	-2698
▁bear	-2699
▁cult	-2700
▁look	-2701
▁rack	-2702
▁year	-2703
▁Texas	-2704
▁goods	-2705
▁horse	-2706
▁lemon	-2707
▁shops	-2708
▁sizes	-2709
▁spons	-2710
▁visit	-2711
▁Google	-2712
▁condim	-2713
▁curren	-2714
▁maroon	-2715
▁spines	-2716
▁English	-2717
▁highway	-2718
▁seating	-2719
▁training	-2720
▁additional	-2721
▁announcing	-2722
▁vegetables	-2723
▁skyscrapers	-2724
De	-2725
ye	-2726
ze	-2727
log	-2728
nal	-2729
ots	-2730
ted	-2731
umb	-2732
urs	-2733
▁En	-2734
▁La	-2735
iers	-2736
reat	-2737
ston	-2738
▁Bus	-2739
▁Spe	-2740
▁ant	-2741
▁fut	-2742
▁ing	-2743
▁joy	-2744
▁rol	-2745
ified	-2746
rical	-2747
riend	-2748
▁King	-2749
untain	-2750
▁shape	-2751
▁sweat	-2752
▁wrest	-2753
▁Histor	-2754
▁appear	-2755
▁clouds	-2756
▁ingred	-2757
▁liquor	-2758
▁Digital	-2759
▁caution	-2760
▁feature	-2761
▁history	-2762
▁located	-2763
▁concepts	-2764
▁sidewalk	-2765
▁watching	-2766
▁exhibition	-2767
▁headphones	-2768
▁typography	-2769
▁interacting	-2770
Le	-2771
VD	-2772
aj	-2773
cer	-2774
net	-2775
ose	-2776
ser	-2777
uff	-2778
usi	-2779
aces	-2780
ader	-2781
ales	-2782
cean	-2783
view	-2784
▁Mer	-2785
▁iss	-2786
▁sco	-2787
▁wra	-2788
aving	-2789
eting	-2790
itter	-2791
▁emer	-2792
▁flip	-2793
▁hard	-2794
▁shad	-2795
▁user	-2796
ession	-2797
shirts	-2798
vation	-2799
▁ballo	-2800
▁drive	-2801
▁guide	-2802
▁juice	-2803
▁recyc	-2804
▁years	-2805
related	-2806
▁curved	-2807
▁mechan	-2808
▁shapes	-2809
▁styles	-2810
▁urging	-2811
▁closely	-2812
▁dynamic	-2813
▁painted	-2814
▁numbered	-2815
▁patterns	-2816
▁community	-2817
▁pedestrian	-2818
▁competition	-2819
▁ingredients	-2820
?"	-2821
DE	-2822
RO	-2823
UT	-2824
my	-2825
alf	-2826
ien	-2827
▁AT	-2828
back	-2829
ests	-2830
fter	-2831
izes	-2832
ring	-2833
▁DVD	-2834
▁Day	-2835
▁rad	-2836
ategy	-2837
cloth	-2838
lance	-2839
ollar	-2840
thusi	-2841
▁dirt	-2842
▁guit	-2843
▁pale	-2844
▁tape	-2845
aining	-2846
istics	-2847
orting	-2848
▁Canad	-2849
▁crown	-2850
▁human	-2851
▁plant	-2852
▁spray	-2853
▁United	-2854
▁assort	-2855
▁cigare	-2856
▁explor	-2857
▁arrange	-2858
▁battery	-2859
▁enthusi	-2860
▁upright	-2861
▁determin	-2862
▁presents	-2863
▁signific	-2864
▁terminal	-2865
▁bookshelf	-2866
▁political	-2867
▁electronic	-2868
▁tablecloth	-2869
▁application	-2870
▁highlighted	-2871
▁cheerleaders	-2872
IR	-2873
ma	-2874
ob	-2875
yl	-2876
ama	-2877
bur	-2878
eum	-2879
ith	-2880
rid	-2881
▁AM	-2882
▁Ca	-2883
▁ut	-2884
aine	-2885
arbu	-2886
ctor	-2887
mans	-2888
ooth	-2889
ract	-2890
ustr	-2891
▁Bra	-2892
▁Cor	-2893
▁Har	-2894
▁Mod	-2895
▁bur	-2896
▁ear	-2897
▁ext	-2898
▁imp	-2899
▁inf	-2900
▁pop	-2901
athem	-2902
ister	-2903
space	-2904
▁Chic	-2905
▁Mets	-2906
▁Mich	-2907
▁coat	-2908
▁groc	-2909
▁lens	-2910
▁news	-2911
▁outl	-2912
ington	-2913
▁bench	-2914
▁cargo	-2915
▁dimly	-2916
▁smile	-2917
arbucks	-2918
▁engine	-2919
▁leaves	-2920
▁museum	-2921
▁priced	-2922
▁webpage	-2923
▁strategy	-2924
▁Starbucks	-2925
▁checkered	-2926
▁encouraging	-2927
▁measurements	-2928
Wh	-2929
ga	-2930
ini	-2931
quo	-2932
▁Am	-2933
▁es	-2934
▁my	-2935
ases	-2936
chie	-2937
ians	-2938
imar	-2939
like	-2940
roid	-2941
unch	-2942
▁Bro	-2943
▁Cap	-2944
▁Cas	-2945
▁Par	-2946
▁Sau	-2947
▁cor	-2948
▁mer	-2949
▁nar	-2950
▁oil	-2951
▁pom	-2952
▁rib	-2953
alend	-2954
ising	-2955
ribed	-2956
▁film	-2957
▁masc	-2958
▁penc	-2959
▁prov	-2960
▁toys	-2961
ically	-2962
▁Class	-2963
▁Score	-2964
▁after	-2965
▁bridge	-2966
▁manage	-2967
▁struct	-2968
▁tablet	-2969
▁British	-2970
▁devices	-2971
▁flanked	-2972
▁signals	-2973
▁writing	-2974
▁interact	-2975
▁packaged	-2976
▁inscribed	-2977
▁cheerleader	-2978
erm	-2979
hop	-2980
inn	-2981
lum	-2982
lus	-2983
rem	-2984
▁As	-2985
▁At	-2986
▁Im	-2987
▁Ma	-2988
gout	-2989
lant	-2990
lymp	-2991
play	-2992
▁law	-2993
▁leg	-2994
▁pat	-2995
▁rot	-2996
iding	-2997
rench	-2998
scape	-2999
▁Comp	-3000
▁Jack	-3001
▁Port	-3002
▁iPod	-3003
▁sing	-3004
quoise	-3005
▁Album	-3006
▁State	-3007
▁arrow	-3008
▁count	-3009
▁motor	-3010
▁multi	-3011
▁quest	-3012
▁sheet	-3013
▁stamp	-3014
▁whims	-3015
▁Compan	-3016
▁attemp	-3017
▁button	-3018
▁calend	-3019
▁corner	-3020
▁guitar	-3021
▁mathem	-3022
▁pieces	-3023
▁plaque	-3024
▁serene	-3025
▁volume	-3026
▁outfits	-3027
▁backpack	-3028
▁bicycles	-3029
▁turquoise	-3030
▁whimsical	-3031
▁Scoreboard	-3032
▁appliances	-3033
▁inscription	-3034
▁surrounding	-3035
▁descriptions	-3036
▁specifications	-3037
IA	-3038
LA	-3039
TH	-3040
ep	-3041
eu	-3042
afe	-3043
ney	-3044
ota	-3045
pes	-3046
inyl	-3047
otes	-3048
poms	-3049
▁Jul	-3050
▁Res	-3051
▁cat	-3052
▁hon	-3053
akers	-3054
amond	-3055
arden	-3056
onent	-3057
▁Geor	-3058
▁Text	-3059
▁West	-3060
▁golf	-3061
▁icon	-3062
▁lamp	-3063
▁pain	-3064
▁site	-3065
▁swim	-3066
▁tags	-3067
inness	-3068
▁Light	-3069
▁Olymp	-3070
▁achie	-3071
▁audio	-3072
▁chick	-3073
▁coach	-3074
▁fence	-3075
▁party	-3076
▁super	-3077
▁times	-3078
▁walls	-3079
imarily	-3080
▁boxing	-3081
▁butter	-3082
▁mascot	-3083
▁meters	-3084
▁microp	-3085
▁microw	-3086
▁though	-3087
▁waters	-3088
▁condens	-3089
▁drivers	-3090
▁fashion	-3091
▁members	-3092
▁printer	-3093
▁special	-3094
▁browsing	-3095
▁offering	-3096
▁visitors	-3097
▁emergency	-3098
▁primarily	-3099
▁University	-3100
▁arrangement	-3101
KE	-3102
LI	-3103
eb	-3104
zz	-3105
bot	-3106
con	-3107
ico	-3108
▁hy	-3109
aila	-3110
aked	-3111
lear	-3112
rome	-3113
▁For	-3114
▁Ice	-3115
▁Per	-3116
▁Sup	-3117
▁bed	-3118
▁bin	-3119
chand	-3120
press	-3121
▁also	-3122
▁café	-3123
▁call	-3124
▁cork	-3125
▁neon	-3126
▁orig	-3127
▁dates	-3128
▁liter	-3129
▁looks	-3130
▁timer	-3131
▁vinyl	-3132
reshing	-3133
▁clocks	-3134
▁cosmet	-3135
▁dugout	-3136
▁formal	-3137
▁helmet	-3138
▁luxury	-3139
▁sticks	-3140
▁weight	-3141
chandise	-3142
▁Company	-3143
▁Francis	-3144
▁MacBook	-3145
▁authors	-3146
▁desktop	-3147
▁edition	-3148
▁energet	-3149
▁grocery	-3150
▁musical	-3151
▁carrying	-3152
▁commemor	-3153
▁distance	-3154
▁shipping	-3155
▁soldiers	-3156
▁cabinetry	-3157
▁microwave	-3158
▁playfully	-3159
▁recycling	-3160
▁remaining	-3161
▁workspace	-3162
▁presenting	-3163
▁merchandise	-3164
Al	-3165
CE	-3166
OO	-3167
gr	-3168
box	-3169
che	-3170
elf	-3171
inc	-3172
rab	-3173
ude	-3174
▁Ed	-3175
▁Eu	-3176
▁PM	-3177
▁ol	-3178
abil	-3179
eans	-3180
fore	-3181
fort	-3182
lers	-3183
lets	-3184
ners	-3185
otch	-3186
ways	-3187
▁Art	-3188
▁Bel	-3189
▁Lou	-3190
▁Mic	-3191
faces	-3192
inese	-3193
tists	-3194
velop	-3195
▁Coke	-3196
▁Eric	-3197
▁bank	-3198
▁exit	-3199
▁fast	-3200
▁gift	-3201
▁vict	-3202
▁Lager	-3203
▁block	-3204
▁fruit	-3205
▁relig	-3206
▁rugby	-3207
▁stair	-3208
▁trail	-3209
▁attend	-3210
▁insign	-3211
▁opened	-3212
▁artists	-3213
▁Guinness	-3214
▁Mountain	-3215
▁calendar	-3216
▁engraved	-3217
▁flavored	-3218
▁overhead	-3219
▁striking	-3220
▁champagne	-3221
▁customers	-3222
▁discusses	-3223
▁reference	-3224
▁welcoming	-3225
▁functional	-3226
▁structures	-3227
▁condensation	-3228
ONE	-3229
TER	-3230
acy	-3231
ago	-3232
ane	-3233
aps	-3234
ila	-3235
iod	-3236
kes	-3237
lin	-3238
rup	-3239
▁Bu	-3240
▁Do	-3241
▁QW	-3242
aded	-3243
eing	-3244
iang	-3245
▁Bre	-3246
▁May	-3247
▁Mil	-3248
▁You	-3249
▁den	-3250
▁fit	-3251
▁pad	-3252
▁umb	-3253
▁val	-3254
Berry	-3255
ality	-3256
lease	-3257
▁Char	-3258
▁Mark	-3259
▁Open	-3260
▁fant	-3261
▁jump	-3262
▁made	-3263
▁prot	-3264
▁sche	-3265
elcome	-3266
▁award	-3267
▁boats	-3268
▁cases	-3269
▁chalk	-3270
▁entry	-3271
▁figur	-3272
▁futur	-3273
▁graph	-3274
▁local	-3275
▁lumin	-3276
▁radio	-3277
▁shoot	-3278
▁smoke	-3279
manship	-3280
▁Center	-3281
▁French	-3282
▁German	-3283
▁QWERTY	-3284
▁availa	-3285
▁before	-3286
▁facing	-3287
▁flavor	-3288
▁fruits	-3289
▁raised	-3290
▁scenes	-3291
▁square	-3292
▁taking	-3293
▁umbrel	-3294
idential	-3295
▁America	-3296
▁meeting	-3297
▁payment	-3298
▁soldier	-3299
▁thought	-3300
▁activity	-3301
▁converse	-3302
▁crossing	-3303
▁insignia	-3304
▁luminous	-3305
▁Christmas	-3306
▁addressed	-3307
▁cityscape	-3308
▁transport	-3309
▁BlackBerry	-3310
▁condiments	-3311
▁futuristic	-3312
▁management	-3313
▁refreshing	-3314
▁statistics	-3315
AG	-3316
Ex	-3317
ID	-3318
NO	-3319
RU	-3320
gu	-3321
ara	-3322
cyc	-3323
ham	-3324
▁Bl	-3325
▁Tr	-3326
agle	-3327
airy	-3328
▁Ver	-3329
▁arm	-3330
▁pil	-3331
▁upd	-3332
▁wet	-3333
▁you	-3334
ently	-3335
ivity	-3336
liage	-3337
oment	-3338
▁exam	-3339
▁fold	-3340
▁inst	-3341
▁item	-3342
▁mugs	-3343
▁rect	-3344
▁rink	-3345
▁rock	-3346
▁task	-3347
▁wing	-3348
athers	-3349
▁Willi	-3350
▁jeans	-3351
▁lists	-3352
▁pizza	-3353
▁robot	-3354
▁short	-3355
▁tiled	-3356
▁warns	-3357
ustrial	-3358
vements	-3359
▁Robert	-3360
▁called	-3361
▁dining	-3362
▁genres	-3363
▁rustic	-3364
▁scores	-3365
▁series	-3366
▁shadow	-3367
▁triang	-3368
▁Brewing	-3369
▁Chinese	-3370
▁Players	-3371
▁defends	-3372
▁diamond	-3373
▁dispens	-3374
▁driving	-3375
▁fighter	-3376
▁foliage	-3377
▁include	-3378
▁tagline	-3379
▁painting	-3380
▁observing	-3381
▁propeller	-3382
▁cartoonish	-3383
▁highlights	-3384
AB	-3385
Ar	-3386
Sh	-3387
Sp	-3388
ua	-3389
▁-	-3390
ees	-3391
ita	-3392
ouf	-3393
son	-3394
val	-3395
yal	-3396
zer	-3397
▁aw	-3398
▁er	-3399
▁pa	-3400
ains	-3401
erty	-3402
eter	-3403
ires	-3404
nish	-3405
▁Ann	-3406
▁Dav	-3407
▁Mot	-3408
▁USB	-3409
▁aer	-3410
▁ang	-3411
▁ann	-3412
▁cer	-3413
▁cyl	-3414
▁flu	-3415
▁sea	-3416
dials	-3417
ember	-3418
ignon	-3419
itive	-3420
thern	-3421
▁Cont	-3422
▁Fire	-3423
▁Pils	-3424
▁grid	-3425
▁pens	-3426
▁take	-3427
atical	-3428
▁Stout	-3429
▁doors	-3430
▁flies	-3431
▁sport	-3432
▁steam	-3433
▁blonde	-3434
▁bookst	-3435
▁camouf	-3436
▁compan	-3437
▁cylind	-3438
▁depart	-3439
▁handle	-3440
▁photos	-3441
▁polish	-3442
▁stacks	-3443
▁chicken	-3444
▁pattern	-3445
▁picture	-3446
▁rectang	-3447
ashington	-3448
velopment	-3449
▁National	-3450
▁cyclists	-3451
▁fireworks	-3452
▁locations	-3453
▁published	-3454
▁sculpture	-3455
▁industrial	-3456
▁microphone	-3457
▁approaching	-3458
▁mathematical	-3459
▁significance	-3460
▁specifically	-3461
..	-3462
AV	-3463
CO	-3464
PH	-3465
eth	-3466
ica	-3467
lav	-3468
mic	-3469
oph	-3470
umm	-3471
▁BM	-3472
▁Lu	-3473
agen	-3474
ason	-3475
irth	-3476
otic	-3477
ubes	-3478
▁Ber	-3479
▁Mus	-3480
▁Tit	-3481
▁bad	-3482
▁cla	-3483
arter	-3484
ilver	-3485
lanes	-3486
onald	-3487
▁feed	-3488
ometer	-3489
vignon	-3490
▁Casio	-3491
▁Image	-3492
▁Louis	-3493
▁arena	-3494
▁bread	-3495
▁grand	-3496
▁lines	-3497
▁suits	-3498
▁techn	-3499
▁wheel	-3500
▁Boeing	-3501
▁cables	-3502
▁edited	-3503
▁livery	-3504
▁models	-3505
▁sleeve	-3506
▁ticket	-3507
▁cycling	-3508
▁leading	-3509
▁victory	-3510
▁wrapped	-3511
▁drawings	-3512
▁movement	-3513
▁shoppers	-3514
▁Francisco	-3515
▁bookstore	-3516
▁religious	-3517
▁advertises	-3518
▁performing	-3519
▁rectangular	-3520
▁residential	-3521
FF	-3522
La	-3523
Ro	-3524
ION	-3525
ani	-3526
aul	-3527
bec	-3528
bus	-3529
ipe	-3530
raf	-3531
ris	-3532
xim	-3533
▁AN	-3534
▁Ab	-3535
▁tw	-3536
alog	-3537
bble	-3538
boat	-3539
free	-3540
igan	-3541
mato	-3542
sson	-3543
utes	-3544
vern	-3545
▁Bee	-3546
▁Bud	-3547
▁Des	-3548
▁Dew	-3549
▁Lat	-3550
▁Tre	-3551
▁anc	-3552
▁kit	-3553
▁lot	-3554
anish	-3555
arbor	-3556
iller	-3557
ption	-3558
ronts	-3559
stick	-3560
▁Back	-3561
▁Ford	-3562
▁Prom	-3563
▁Sept	-3564
▁Star	-3565
▁must	-3566
▁obsc	-3567
▁phys	-3568
▁same	-3569
ential	-3570
illing	-3571
lowing	-3572
ricket	-3573
▁Brown	-3574
▁House	-3575
▁balls	-3576
▁beaut	-3577
▁boxed	-3578
▁cable	-3579
▁conve	-3580
▁couch	-3581
▁creat	-3582
▁demon	-3583
▁jumps	-3584
▁medal	-3585
▁memor	-3586
▁olive	-3587
▁sandy	-3588
▁shoes	-3589
▁stall	-3590
▁state	-3591
ization	-3592
ometric	-3593
▁Intern	-3594
▁Scotch	-3595
▁arrows	-3596
▁goalie	-3597
▁import	-3598
▁moment	-3599
▁scheme	-3600
▁smooth	-3601
▁statue	-3602
▁article	-3603
▁blender	-3604
▁bottled	-3605
▁current	-3606
▁drawing	-3607
▁garnish	-3608
▁intense	-3609
▁notable	-3610
▁package	-3611
▁prepare	-3612
▁animated	-3613
▁charging	-3614
▁contents	-3615
▁gathered	-3616
▁September	-3617
▁directing	-3618
▁interacts	-3619
▁Washington	-3620
▁camouflage	-3621
▁categories	-3622
▁chalkboard	-3623
▁enthusiast	-3624
▁reflection	-3625
▁development	-3626
▁educational	-3627
▁communication	-3628
An	-3629
Co	-3630
LY	-3631
MA	-3632
NE	-3633
UM	-3634
UP	-3635
fi	-3636
ja	-3637
ALL	-3638
ads	-3639
att	-3640
ida	-3641
ksw	-3642
omb	-3643
pet	-3644
tes	-3645
▁Af	-3646
▁IS	-3647
▁LE	-3648
▁NY	-3649
▁km	-3650
berg	-3651
ello	-3652
ilar	-3653
rics	-3654
ship	-3655
wood	-3656
▁Ext	-3657
▁Gra	-3658
▁Pol	-3659
▁Tom	-3660
▁adv	-3661
▁bla	-3662
▁emb	-3663
▁fam	-3664
▁fre	-3665
▁ven	-3666
atory	-3667
house	-3668
lines	-3669
order	-3670
oring	-3671
strum	-3672
ville	-3673
▁Camp	-3674
▁Feat	-3675
▁Phil	-3676
▁aged	-3677
▁crew	-3678
▁fuse	-3679
▁love	-3680
▁neck	-3681
▁wash	-3682
ancing	-3683
bernet	-3684
fronts	-3685
iation	-3686
▁Cover	-3687
▁James	-3688
▁Santa	-3689
▁Under	-3690
▁brush	-3691
▁cloth	-3692
▁first	-3693
▁games	-3694
▁ideas	-3695
▁mixer	-3696
▁ocean	-3697
▁press	-3698
▁skate	-3699
▁sugar	-3700
▁third	-3701
▁trash	-3702
▁waves	-3703
aration	-3704
ibility	-3705
irthday	-3706
▁Boston	-3707
▁George	-3708
▁cheese	-3709
▁cooker	-3710
▁hoodie	-3711
▁larger	-3712
▁minute	-3713
▁period	-3714
▁ribbon	-3715
▁roller	-3716
▁search	-3717
▁skates	-3718
▁status	-3719
▁variet	-3720
ientific	-3721
▁Twitter	-3722
▁deliver	-3723
▁gathers	-3724
▁medical	-3725
▁quarter	-3726
▁receive	-3727
▁Cabernet	-3728
▁Ericsson	-3729
▁Features	-3730
▁Historic	-3731
▁approxim	-3732
▁cheerful	-3733
▁cleaning	-3734
▁cookbook	-3735
▁demonstr	-3736
▁intently	-3737
▁Sauvignon	-3738
▁alcoholic	-3739
▁available	-3740
▁elegantly	-3741
▁geometric	-3742
▁personnel	-3743
▁cylindrical	-3744
▁programming	-3745
▁symbolizing	-3746
▁applications	-3747
▁determination	-3748
AP	-3749
EC	-3750
ha	-3751
ENT	-3752
Old	-3753
arp	-3754
ios	-3755
lax	-3756
nds	-3757
onn	-3758
zil	-3759
âte	-3760
▁HP	-3761
▁On	-3762
adem	-3763
appy	-3764
eric	-3765
idel	-3766
iser	-3767
lash	-3768
ount	-3769
ques	-3770
rier	-3771
▁BMW	-3772
▁Bur	-3773
▁McD	-3774
▁Pin	-3775
▁Sho	-3776
▁Toy	-3777
▁bul	-3778
▁don	-3779
allen	-3780
cular	-3781
eters	-3782
inder	-3783
labor	-3784
neath	-3785
ummer	-3786
▁Aust	-3787
▁Bott	-3788
▁Conc	-3789
▁Flor	-3790
▁Foot	-3791
▁July	-3792
▁Road	-3793
▁ambu	-3794
▁cutt	-3795
▁frag	-3796
▁link	-3797
▁live	-3798
▁mini	-3799
▁rows	-3800
aderie	-3801
▁Champ	-3802
▁Clear	-3803
▁March	-3804
▁broch	-3805
▁camar	-3806
▁chann	-3807
▁chips	-3808
▁crack	-3809
▁exper	-3810
▁greet	-3811
▁motiv	-3812
▁relax	-3813
▁stars	-3814
▁tasks	-3815
kswagen	-3816
riendly	-3817
▁Island	-3818
▁Modern	-3819
▁People	-3820
▁States	-3821
▁Valley	-3822
▁assist	-3823
▁attent	-3824
▁candle	-3825
▁casing	-3826
▁compar	-3827
▁fields	-3828
▁holder	-3829
▁notice	-3830
▁pencil	-3831
▁toward	-3832
▁Spanish	-3833
▁antique	-3834
▁coaster	-3835
▁concert	-3836
▁culture	-3837
▁cyclist	-3838
▁denomin	-3839
▁pricing	-3840
▁restric	-3841
▁similar	-3842
▁working	-3843
▁McDonald	-3844
▁electric	-3845
▁fuselage	-3846
▁included	-3847
▁opponent	-3848
▁research	-3849
▁sketches	-3850
▁musicians	-3851
▁outlining	-3852
▁Volkswagen	-3853
▁emphasizes	-3854
▁scientific	-3855
▁underneath	-3856
▁camaraderie	-3857
▁approximately	-3858
Be	-3859
LO	-3860
RI	-3861
Un	-3862
ml	-3863
ón	-3864
VER	-3865
ado	-3866
cal	-3867
com	-3868
now	-3869
pit	-3870
ras	-3871
▁BE	-3872
▁Cu	-3873
▁Ho	-3874
▁Qu	-3875
▁gl	-3876
amps	-3877
ands	-3878
erve	-3879
iant	-3880
nded	-3881
ords	-3882
volu	-3883
wich	-3884
▁All	-3885
▁CDs	-3886
▁Mag	-3887
▁Run	-3888
▁Sch	-3889
▁age	-3890
▁bib	-3891
▁bre	-3892
▁dam	-3893
▁nap	-3894
▁nut	-3895
▁sci	-3896
▁sne	-3897
bling	-3898
ccess	-3899
cedes	-3900
marks	-3901
rafts	-3902
ribut	-3903
stone	-3904
ubber	-3905
urity	-3906
▁Ener	-3907
▁Free	-3908
▁Ital	-3909
▁Prem	-3910
▁Sing	-3911
▁baby	-3912
▁deck	-3913
▁easy	-3914
▁lime	-3915
▁more	-3916
▁navy	-3917
▁rice	-3918
▁stra	-3919
▁teal	-3920
▁tube	-3921
▁turn	-3922
▁vary	-3923
▁vers	-3924
▁wire	-3925
orized	-3926
▁Micro	-3927
▁North	-3928
▁cider	-3929
▁cones	-3930
▁craft	-3931
▁skirt	-3932
▁spine	-3933
▁therm	-3934
▁venue	-3935
Welcome	-3936
chester	-3937
itement	-3938
▁adults	-3939
▁baking	-3940
▁comput	-3941
▁dishes	-3942
▁medals	-3943
▁packed	-3944
▁single	-3945
▁Android	-3946
▁Classic	-3947
▁Stories	-3948
▁circuit	-3949
▁fantasy	-3950
▁officer	-3951
▁phrases	-3952
▁records	-3953
▁seconds	-3954
▁serving	-3955
▁strateg	-3956
▁volumes	-3957
▁Canadian	-3958
▁Michigan	-3959
▁delivery	-3960
▁indicate	-3961
▁language	-3962
▁motorcyc	-3963
▁obscured	-3964
▁portable	-3965
▁accessory	-3966
▁condition	-3967
▁cosmetics	-3968
▁opponents	-3969
▁silhouett	-3970
▁comparison	-3971
▁expressing	-3972
▁identified	-3973
▁preparation	-3974
▁storefronts	-3975
▁minimalistic	-3976
▁motivational	-3977
▁functionality	-3978
Go	-3979
OD	-3980
UB	-3981
UC	-3982
We	-3983
ki	-3984
ANT	-3985
ARD	-3986
IME	-3987
THE	-3988
avy	-3989
bow	-3990
eek	-3991
ipp	-3992
unk	-3993
▁AS	-3994
▁Mr	-3995
▁Ve	-3996
▁Wi	-3997
aste	-3998
ells	-3999
erly	-4000
flav	-4001
iano	-4002
road	-4003
thod	-4004
▁Cla	-4005
▁Emp	-4006
▁Est	-4007
▁Gen	-4008
▁Hol	-4009
▁Hot	-4010
▁Len	-4011
▁Med	-4012
▁Men	-4013
▁Mex	-4014
▁Que	-4015
▁Sec	-4016
▁Van	-4017
▁cop	-4018
▁cut	-4019
▁egg	-4020
▁est	-4021
▁ran	-4022
aning	-4023
aping	-4024
ettle	-4025
ightt	-4026
âteau	-4027
▁Diet	-4028
▁Fest	-4029
▁Life	-4030
▁Rock	-4031
▁Time	-4032
▁Vari	-4033
▁alph	-4034
▁bike	-4035
▁clim	-4036
▁cool	-4037
▁dest	-4038
▁effe	-4039
▁gymn	-4040
▁hous	-4041
▁make	-4042
▁rain	-4043
▁sink	-4044
▁slic	-4045
▁talk	-4046
▁tops	-4047
▁unit	-4048
ineken	-4049
▁adjus	-4050
▁apple	-4051
▁conso	-4052
▁eagle	-4053
▁fight	-4054
▁legal	-4055
▁sides	-4056
▁toile	-4057
▁wings	-4058
otional	-4059
▁Brazil	-4060
▁Indian	-4061
▁bucket	-4062
▁kettle	-4063
▁lining	-4064
▁nature	-4065
▁panels	-4066
▁plates	-4067
▁pocket	-4068
▁powder	-4069
▁spread	-4070
▁tomato	-4071
flavored	-4072
ighttime	-4073
▁Concert	-4074
▁Stadium	-4075
▁William	-4076
▁brewing	-4077
▁costume	-4078
▁cricket	-4079
▁cutting	-4080
▁liquids	-4081
▁observe	-4082
▁protest	-4083
▁referen	-4084
▁science	-4085
▁stopped	-4086
▁varying	-4087
▁Football	-4088
▁Heineken	-4089
▁Mercedes	-4090
▁articles	-4091
▁assorted	-4092
▁machines	-4093
▁standard	-4094
▁classroom	-4095
▁keyboards	-4096
▁umbrellas	-4097
▁varieties	-4098
▁excitement	-4099
▁indicators	-4100
▁identification	-4101
).	-4102
EE	-4103
EM	-4104
KS	-4105
xy	-4106
▁£	-4107
ATE	-4108
EST	-4109
ICE	-4110
arf	-4111
bal	-4112
ief	-4113
imp	-4114
lat	-4115
lot	-4116
nes	-4117
ros	-4118
ssy	-4119
ste	-4120
tho	-4121
uss	-4122
vin	-4123
▁My	-4124
corn	-4125
ella	-4126
emon	-4127
gian	-4128
omot	-4129
pril	-4130
rack	-4131
ried	-4132
rope	-4133
ttes	-4134
ules	-4135
urch	-4136
urse	-4137
▁Aud	-4138
▁Cho	-4139
▁Dry	-4140
▁GPS	-4141
▁God	-4142
▁Her	-4143
▁Int	-4144
▁NYC	-4145
▁Pan	-4146
▁Sub	-4147
▁THE	-4148
▁YOU	-4149
▁eld	-4150
▁few	-4151
▁kne	-4152
▁kno	-4153
▁say	-4154
▁spr	-4155
bbles	-4156
earby	-4157
▁Arab	-4158
▁Best	-4159
▁Each	-4160
▁Gala	-4161
▁LEGO	-4162
▁away	-4163
▁bare	-4164
▁cold	-4165
▁dual	-4166
▁fuel	-4167
▁half	-4168
▁main	-4169
▁song	-4170
▁weap	-4171
iberty	-4172
urious	-4173
▁David	-4174
▁First	-4175
▁India	-4176
▁Music	-4177
▁Pinot	-4178
▁Water	-4179
▁areas	-4180
▁flash	-4181
▁knife	-4182
▁lager	-4183
▁lying	-4184
▁mouth	-4185
▁older	-4186
▁spoon	-4187
▁staff	-4188
▁start	-4189
▁waits	-4190
outhern	-4191
▁Nearby	-4192
▁Toyota	-4193
▁canned	-4194
▁carpet	-4195
▁crafts	-4196
▁glossy	-4197
▁gravel	-4198
▁harbor	-4199
▁inches	-4200
▁issues	-4201
▁motion	-4202
▁sticky	-4203
▁stream	-4204
▁Austral	-4205
▁Display	-4206
▁Florida	-4207
▁Various	-4208
▁attract	-4209
▁distant	-4210
▁elderly	-4211
▁excited	-4212
▁fitness	-4213
▁popcorn	-4214
▁serious	-4215
▁stocked	-4216
▁terrain	-4217
▁waiting	-4218
▁balloons	-4219
▁boarding	-4220
▁distress	-4221
▁figurine	-4222
▁muscular	-4223
▁luxurious	-4224
▁Spectators	-4225
▁importance	-4226
▁mechanical	-4227
▁expressions	-4228
▁smartphones	-4229
▁participants	-4230
AK	-4231
FA	-4232
HT	-4233
II	-4234
Qu	-4235
TE	-4236
TO	-4237
ux	-4238
va	-4239
ERS	-4240
ICA	-4241
INE	-4242
Pro	-4243
azz	-4244
ect	-4245
isc	-4246
nam	-4247
ode	-4248
off	-4249
ope	-4250
umn	-4251
ura	-4252
▁Ag	-4253
▁Ba	-4254
▁DJ	-4255
▁IN	-4256
▁ON	-4257
▁ce	-4258
arel	-4259
elle	-4260
ican	-4261
ipes	-4262
itiz	-4263
itor	-4264
ogue	-4265
post	-4266
rete	-4267
sert	-4268
weet	-4269
▁Abs	-4270
▁Min	-4271
▁NAS	-4272
▁Sun	-4273
▁Sur	-4274
▁Tho	-4275
▁cow	-4276
▁dry	-4277
▁end	-4278
▁tie	-4279
▁via	-4280
▁win	-4281
pping	-4282
ruise	-4283
▁Acer	-4284
▁Comm	-4285
▁Dece	-4286
▁Face	-4287
▁Fans	-4288
▁Home	-4289
▁June	-4290
▁Mart	-4291
▁Tran	-4292
▁Wood	-4293
▁cord	-4294
▁dust	-4295
▁edge	-4296
▁feet	-4297
▁hats	-4298
▁leaf	-4299
▁lion	-4300
▁narr	-4301
▁priv	-4302
▁rose	-4303
▁slow	-4304
▁vend	-4305
▁vess	-4306
ancial	-4307
▁Books	-4308
▁Cheer	-4309
▁Field	-4310
▁Frank	-4311
▁Grand	-4312
▁Title	-4313
▁Union	-4314
▁brass	-4315
▁buses	-4316
▁candy	-4317
▁condu	-4318
▁dairy	-4319
▁faces	-4320
▁maker	-4321
▁motif	-4322
▁oppos	-4323
▁purch	-4324
▁sails	-4325
▁steps	-4326
▁utens	-4327
▁Coffee	-4328
▁Silver	-4329
▁author	-4330
▁cleats	-4331
▁costum	-4332
▁driver	-4333
▁flames	-4334
▁forest	-4335
▁letter	-4336
▁levels	-4337
▁napkin	-4338
▁paired	-4339
▁prohib	-4340
▁routes	-4341
▁signed	-4342
▁subway	-4343
▁winter	-4344
ographic	-4345
volution	-4346
▁Chicago	-4347
▁bowling	-4348
▁ceramic	-4349
▁cockpit	-4350
▁company	-4351
▁dessert	-4352
▁locomot	-4353
▁objects	-4354
▁organic	-4355
▁railway	-4356
▁rounded	-4357
▁session	-4358
▁sponsor	-4359
▁sweater	-4360
▁theater	-4361
▁typical	-4362
▁Facebook	-4363
▁actively	-4364
▁attempts	-4365
▁birthday	-4366
▁concrete	-4367
▁joyfully	-4368
▁question	-4369
▁teammate	-4370
▁airplanes	-4371
▁ambulance	-4372
▁attendees	-4373
▁cigarette	-4374
▁equations	-4375
▁garnished	-4376
▁landmarks	-4377
▁languages	-4378
▁messaging	-4379
▁nighttime	-4380
▁practices	-4381
▁presenter	-4382
▁showcased	-4383
▁wrestling	-4384
▁motorcycle	-4385
▁sleeveless	-4386
▁triangular	-4387
▁photography	-4388
▁achievements	-4389
▁demonstrating	-4390
▁denominations	-4391
.,	-4392
SP	-4393
Se	-4394
VE	-4395
da	-4396
pa	-4397
vo	-4398
IVE	-4399
OME	-4400
bit	-4401
cut	-4402
eur	-4403
mar	-4404
ovo	-4405
put	-4406
ula	-4407
ule	-4408
vad	-4409
zen	-4410
▁Gr	-4411
▁Je	-4412
▁Ob	-4413
▁To	-4414
ache	-4415
acts	-4416
aved	-4417
bell	-4418
cott	-4419
ebru	-4420
gent	-4421
held	-4422
olut	-4423
rior	-4424
ruit	-4425
spir	-4426
umbs	-4427
▁Ben	-4428
▁Gar	-4429
▁Lar	-4430
▁Met	-4431
▁Mur	-4432
▁NOT	-4433
▁Out	-4434
▁Web	-4435
▁bip	-4436
▁eye	-4437
▁pin	-4438
ained	-4439
issot	-4440
nings	-4441
utral	-4442
▁Bour	-4443
▁Busy	-4444
▁Chan	-4445
▁Dark	-4446
▁Hand	-4447
▁Noir	-4448
▁Nove	-4449
▁Root	-4450
▁Your	-4451
▁bars	-4452
▁chat	-4453
▁coup	-4454
▁cran	-4455
▁deep	-4456
▁dogs	-4457
▁embr	-4458
▁grow	-4459
▁lock	-4460
▁miss	-4461
▁nose	-4462
▁pair	-4463
▁pint	-4464
▁pump	-4465
▁push	-4466
▁sala	-4467
▁seal	-4468
▁self	-4469
▁situ	-4470
▁tent	-4471
itting	-4472
omaine	-4473
▁Event	-4474
▁Queen	-4475
▁Royal	-4476
▁Whisk	-4477
▁beans	-4478
▁birds	-4479
▁colum	-4480
▁curly	-4481
▁honey	-4482
▁hours	-4483
▁invol	-4484
▁miles	-4485
▁piece	-4486
▁rides	-4487
▁skull	-4488
▁takes	-4489
imeters	-4490
ionship	-4491
mercial	-4492
vention	-4493
▁Airbus	-4494
▁Bridge	-4495
▁Corona	-4496
▁Energy	-4497
▁Europe	-4498
▁Golden	-4499
▁Tissot	-4500
▁beauty	-4501
▁border	-4502
▁copper	-4503
▁overla	-4504
▁parade	-4505
▁rubber	-4506
▁runner	-4507
▁slides	-4508
▁sporty	-4509
idelines	-4510
iversary	-4511
▁Airways	-4512
▁Brewery	-4513
▁Italian	-4514
▁Service	-4515
▁bubbles	-4516
▁channel	-4517
▁coaches	-4518
▁compart	-4519
▁install	-4520
▁jackets	-4521
▁neutral	-4522
▁opening	-4523
▁passion	-4524
▁workers	-4525
▁December	-4526
▁November	-4527
▁charming	-4528
▁depicted	-4529
▁festival	-4530
▁handheld	-4531
▁physical	-4532
▁sandwich	-4533
▁schedule	-4534
▁sponsors	-4535
▁trophies	-4536
ifications	-4537
▁capturing	-4538
▁departure	-4539
▁direction	-4540
▁exploring	-4541
▁gesturing	-4542
▁navigates	-4543
▁passenger	-4544
▁Manchester	-4545
▁Whiteboard	-4546
▁cigarettes	-4547
▁commercial	-4548
▁strategies	-4549
▁waterfront	-4550
▁competitive	-4551
▁connections	-4552
▁photographs	-4553
▁reflections	-4554
,”	-4555
El	-4556
GE	-4557
Te	-4558
WE	-4559
ONG	-4560
ael	-4561
amm	-4562
eng	-4563
fly	-4564
for	-4565
iff	-4566
ili	-4567
ove	-4568
pot	-4569
reg	-4570
sto	-4571
yes	-4572
▁Ac	-4573
▁TO	-4574
anum	-4575
arth	-4576
cade	-4577
erst	-4578
ford	-4579
hero	-4580
hold	-4581
idas	-4582
ript	-4583
roud	-4584
ssed	-4585
ters	-4586
▁Bat	-4587
▁Cub	-4588
▁Del	-4589
▁Dog	-4590
▁Joe	-4591
▁Mal	-4592
▁Mor	-4593
▁Six	-4594
▁USA	-4595
▁Wal	-4596
▁Yan	-4597
▁ban	-4598
▁but	-4599
▁dec	-4600
▁hyd	-4601
▁sed	-4602
▁sus	-4603
▁swe	-4604
Black	-4605
acent	-4606
athon	-4607
ching	-4608
itage	-4609
mphon	-4610
paper	-4611
quila	-4612
ragon	-4613
strip	-4614
ugust	-4615
▁Love	-4616
▁Muse	-4617
▁Swed	-4618
▁bath	-4619
▁cass	-4620
▁cert	-4621
▁cred	-4622
▁dock	-4623
▁embo	-4624
▁gall	-4625
▁mask	-4626
▁polo	-4627
▁says	-4628
▁tied	-4629
▁vert	-4630
abilia	-4631
angers	-4632
cision	-4633
dollar	-4634
presso	-4635
▁Afric	-4636
▁April	-4637
▁Extra	-4638
▁Great	-4639
▁Latin	-4640
▁Lemon	-4641
▁River	-4642
▁Super	-4643
▁Trees	-4644
▁baked	-4645
▁broad	-4646
▁celeb	-4647
▁edges	-4648
▁foamy	-4649
▁leans	-4650
▁maneu	-4651
▁meats	-4652
▁parts	-4653
▁patch	-4654
▁penny	-4655
▁salad	-4656
▁sales	-4657
▁story	-4658
▁tiles	-4659
▁tubes	-4660
▁wines	-4661
ebruary	-4662
▁Arabic	-4663
▁Atlant	-4664
▁Chanel	-4665
▁Lenovo	-4666
▁beaker	-4667
▁bullet	-4668
▁change	-4669
▁couple	-4670
▁course	-4671
▁family	-4672
▁garden	-4673
▁hangar	-4674
▁region	-4675
▁slices	-4676
▁thumbs	-4677
▁typing	-4678
▁browser	-4679
▁chilled	-4680
▁engines	-4681
▁fiction	-4682
▁glowing	-4683
▁minutes	-4684
▁results	-4685
▁spirits	-4686
struments	-4687
▁Southern	-4688
▁adjacent	-4689
▁cassette	-4690
▁collabor	-4691
▁espresso	-4692
▁greeting	-4693
▁labeling	-4694
▁material	-4695
▁polished	-4696
▁roadside	-4697
▁speakers	-4698
▁spelling	-4699
▁touchpad	-4700
▁dribbling	-4701
▁energetic	-4702
▁financial	-4703
▁headlines	-4704
▁projector	-4705
▁scheduled	-4706
▁stationed	-4707
▁superhero	-4708
▁interfaces	-4709
▁literature	-4710
▁locomotive	-4711
▁attentively	-4712
▁categorized	-4713
▁memorabilia	-4714
▁notification	-4715
▁personalized	-4716
▁International	-4717
.”	-4718
AH	-4719
BA	-4720
BE	-4721
BO	-4722
IE	-4723
MY	-4724
ND	-4725
OC	-4726
SE	-4727
gn	-4728
jo	-4729
ox	-4730
ELL	-4731
FRE	-4732
IRE	-4733
asp	-4734
aux	-4735
bel	-4736
gel	-4737
gth	-4738
izz	-4739
the	-4740
ued	-4741
usk	-4742
▁Em	-4743
▁Ev	-4744
▁OF	-4745
▁QR	-4746
▁SP	-4747
▁SU	-4748
▁Ur	-4749
aily	-4750
bury	-4751
ener	-4752
etic	-4753
ilos	-4754
irin	-4755
ivil	-4756
onda	-4757
oria	-4758
reek	-4759
rels	-4760
soft	-4761
tter	-4762
zzle	-4763
▁Aut	-4764
▁Boy	-4765
▁Cup	-4766
▁FOR	-4767
▁Gin	-4768
▁Ill	-4769
▁McC	-4770
▁Pla	-4771
▁Rad	-4772
▁Rep	-4773
▁Rio	-4774
▁Sam	-4775
▁She	-4776
▁Str	-4777
▁Tea	-4778
▁ess	-4779
▁hur	-4780
▁ink	-4781
▁lif	-4782
▁lip	-4783
▁mid	-4784
▁mud	-4785
▁ros	-4786
▁tun	-4787
akery	-4788
boats	-4789
bound	-4790
olume	-4791
paign	-4792
yrics	-4793
▁Bank	-4794
▁Cook	-4795
▁Moon	-4796
▁Nike	-4797
▁Orig	-4798
▁Plus	-4799
▁Vict	-4800
▁Wild	-4801
▁Work	-4802
▁bran	-4803
▁cake	-4804
▁curt	-4805
▁foil	-4806
▁purs	-4807
▁slot	-4808
▁solu	-4809
▁tour	-4810
▁vest	-4811
▁wind	-4812
▁your	-4813
ademic	-4814
coming	-4815
illage	-4816
merged	-4817
mphony	-4818
rength	-4819
roudly	-4820
weiser	-4821
▁Brook	-4822
▁Phill	-4823
▁Power	-4824
▁Smith	-4825
▁Theat	-4826
▁Tower	-4827
▁Vodka	-4828
▁badge	-4829
▁benef	-4830
▁chart	-4831
▁chess	-4832
▁coast	-4833
▁exhib	-4834
▁faded	-4835
▁frost	-4836
▁grill	-4837
▁kicks	-4838
▁labor	-4839
▁leaps	-4840
▁patri	-4841
▁peace	-4842
▁rocky	-4843
▁sciss	-4844
▁seats	-4845
▁sedan	-4846
▁shake	-4847
▁stout	-4848
▁swing	-4849
▁syrup	-4850
▁world	-4851
leaders	-4852
mperial	-4853
▁August	-4854
▁Galaxy	-4855
▁Miller	-4856
▁Volume	-4857
▁aerial	-4858
▁barbec	-4859
▁cosmic	-4860
▁destin	-4861
▁folded	-4862
▁impact	-4863
▁lineup	-4864
▁making	-4865
▁method	-4866
▁offers	-4867
▁prompt	-4868
▁sauces	-4869
▁saying	-4870
▁served	-4871
▁shaped	-4872
▁shoots	-4873
▁sketch	-4874
▁slight	-4875
▁spaces	-4876
▁strong	-4877
▁toilet	-4878
▁visual	-4879
▁within	-4880
essional	-4881
▁Highway	-4882
▁Library	-4883
▁Olympic	-4884
▁Reserve	-4885
▁Swedish	-4886
▁ancient	-4887
▁apparel	-4888
▁catches	-4889
▁ceiling	-4890
▁console	-4891
▁network	-4892
▁proudly	-4893
▁updates	-4894
▁February	-4895
▁Festival	-4896
▁campaign	-4897
▁embossed	-4898
▁official	-4899
▁overcast	-4900
▁pictures	-4901
▁situated	-4902
▁sneakers	-4903
▁strength	-4904
▁sunlight	-4905
▁utensils	-4906
▁Budweiser	-4907
▁classical	-4908
▁computers	-4909
▁conveying	-4910
▁distances	-4911
▁education	-4912
▁formation	-4913
▁indicator	-4914
▁operating	-4915
▁submerged	-4916
▁wallpaper	-4917
▁wrestlers	-4918
▁assortment	-4919
▁conditions	-4920
▁connection	-4921
▁distressed	-4922
▁landscapes	-4923
▁newspapers	-4924
▁performers	-4925
▁sweatshirt	-4926
▁attractions	-4927
▁celebration	-4928
▁Cheerleaders	-4929
▁passionately	-4930
▁commemorating	-4931
▁craftsmanship	-4932
▁transportation	-4933
Dr	-4934
Fi	-4935
QU	-4936
SH	-4937
gs	-4938
sk	-4939
▁#	-4940
IST	-4941
Man	-4942
aco	-4943
ady	-4944
asm	-4945
emb	-4946
ena	-4947
ext	-4948
gar	-4949
ids	-4950
ize	-4951
lif	-4952
los	-4953
spe	-4954
uld	-4955
wei	-4956
▁Hy	-4957
▁Ir	-4958
▁Ze	-4959
▁ml	-4960
▁ow	-4961
▁oz	-4962
▁vs	-4963
Tube	-4964
alle	-4965
dder	-4966
dles	-4967
gurt	-4968
iana	-4969
izab	-4970
nequ	-4971
ngth	-4972
oker	-4973
oper	-4974
orch	-4975
ouch	-4976
resp	-4977
ulls	-4978
year	-4979
▁ATM	-4980
▁Bay	-4981
▁Bru	-4982
▁Cru	-4983
▁Hal	-4984
▁Ham	-4985
▁Hen	-4986
▁Hua	-4987
▁Jim	-4988
▁Kit	-4989
▁Lab	-4990
▁Nik	-4991
▁Pen	-4992
▁Sky	-4993
▁Ter	-4994
▁Vis	-4995
▁bik	-4996
▁dol	-4997
▁enh	-4998
▁gun	-4999
▁haz	-5000
▁hud	-5001
▁jog	-5002
▁rum	-5003
▁tar	-5004
ander	-5005
anger	-5006
aniel	-5007
asing	-5008
dings	-5009
eline	-5010
ening	-5011
ental	-5012
iants	-5013
inery	-5014
ledge	-5015
lined	-5016
ordin	-5017
ppers	-5018
print	-5019
▁Army	-5020
▁Buil	-5021
▁Game	-5022
▁Jays	-5023
▁Land	-5024
▁NASA	-5025
▁Part	-5026
▁Paul	-5027
▁Shel	-5028
▁bins	-5029
▁cons	-5030
▁file	-5031
▁gate	-5032
▁hall	-5033
▁iPad	-5034
▁inno	-5035
▁lear	-5036
▁magn	-5037
▁maps	-5038
▁pave	-5039
▁pick	-5040
▁pull	-5041
▁resc	-5042
▁salt	-5043
▁tips	-5044
▁zone	-5045
cement	-5046
incare	-5047
irates	-5048
▁Beach	-5049
▁Coast	-5050
▁Count	-5051
▁Crowd	-5052
▁Drive	-5053
▁Elect	-5054
▁Hotel	-5055
▁Movie	-5056
▁adult	-5057
▁advoc	-5058
▁angle	-5059
▁cents	-5060
▁eight	-5061
▁expla	-5062
▁globe	-5063
▁overs	-5064
▁river	-5065
▁spice	-5066
▁stats	-5067
ability	-5068
izabeth	-5069
venture	-5070
▁Adidas	-5071
▁France	-5072
▁Huawei	-5073
▁adjust	-5074
▁animal	-5075
▁arcade	-5076
▁autumn	-5077
▁chrome	-5078
▁cobble	-5079
▁compos	-5080
▁dollar	-5081
▁entert	-5082
▁finger	-5083
▁govern	-5084
▁guides	-5085
▁makeup	-5086
▁manual	-5087
▁narrow	-5088
▁origin	-5089
▁philos	-5090
▁sealed	-5091
▁skills	-5092
▁spices	-5093
▁stairs	-5094
▁weapon	-5095
▁yogurt	-5096
anumeric	-5097
undation	-5098
▁Absolut	-5099
▁Belgian	-5100
▁Premium	-5101
▁Rangers	-5102
▁barrels	-5103
▁carries	-5104
▁columns	-5105
▁concern	-5106
▁coordin	-5107
▁describ	-5108
▁editing	-5109
▁loading	-5110
▁packets	-5111
▁quality	-5112
▁release	-5113
▁runners	-5114
▁utility	-5115
▁visuals	-5116
▁washing	-5117
ictionary	-5118
▁academic	-5119
▁aviation	-5120
▁costumes	-5121
▁cultural	-5122
▁equipped	-5123
▁heritage	-5124
▁internal	-5125
▁necklace	-5126
▁operates	-5127
▁packages	-5128
▁pavement	-5129
▁sailboat	-5130
▁scissors	-5131
▁showcase	-5132
▁skincare	-5133
▁suitable	-5134
▁tracking	-5135
▁warnings	-5136
▁Champagne	-5137
▁Elizabeth	-5138
▁Microsoft	-5139
▁announces	-5140
▁dispenser	-5141
▁hardcover	-5142
▁questions	-5143
▁controller	-5144
▁engagement	-5145
▁guidelines	-5146
▁navigating	-5147
▁Promotional	-5148
▁anniversary	-5149
▁centimeters	-5150
▁cobblestone	-5151
▁mountainous	-5152
▁publication	-5153
▁alphanumeric	-5154
▁championship	-5155
▁enthusiastic	-5156
▁commemorative	-5157
▁energetically	-5158
".	-5159
Fo	-5160
IO	-5161
MS	-5162
Mo	-5163
PE	-5164
Pr	-5165
ci	-5166
ex	-5167
gi	-5168
oh	-5169
uf	-5170
AIN	-5171
ART	-5172
Ben	-5173
Com	-5174
DON	-5175
ERE	-5176
ILL	-5177
eep	-5178
gas	-5179
ira	-5180
key	-5181
lon	-5182
oci	-5183
pie	-5184
por	-5185
▁BB	-5186
▁CO	-5187
▁FC	-5188
▁Ha	-5189
▁IT	-5190
▁TH	-5191
▁ap	-5192
IGHT	-5193
aria	-5194
ario	-5195
band	-5196
cept	-5197
cers	-5198
esse	-5199
esus	-5200
etry	-5201
ided	-5202
iven	-5203
izon	-5204
lege	-5205
rast	-5206
tted	-5207
▁Ant	-5208
▁Aqu	-5209
▁Cam	-5210
▁Don	-5211
▁End	-5212
▁Hon	-5213
▁Jan	-5214
▁Mad	-5215
▁Not	-5216
▁Off	-5217
▁Rum	-5218
▁Sen	-5219
▁Sim	-5220
▁Sox	-5221
▁Spr	-5222
▁Tor	-5223
▁amb	-5224
▁arr	-5225
▁bel	-5226
▁dep	-5227
▁fan	-5228
▁fol	-5229
▁mir	-5230
▁sol	-5231
▁vot	-5232
Happy	-5233
ampoo	-5234
antly	-5235
apter	-5236
astle	-5237
ender	-5238
iques	-5239
ittle	-5240
lying	-5241
night	-5242
ology	-5243
orean	-5244
ually	-5245
utter	-5246
▁ASUS	-5247
▁Base	-5248
▁Blan	-5249
▁Both	-5250
▁Bull	-5251
▁Corn	-5252
▁East	-5253
▁Lake	-5254
▁Mary	-5255
▁Miss	-5256
▁Team	-5257
▁Tech	-5258
▁Wars	-5259
▁Year	-5260
▁belt	-5261
▁bron	-5262
▁cash	-5263
▁dome	-5264
▁drop	-5265
▁drum	-5266
▁elev	-5267
▁eyes	-5268
▁fair	-5269
▁full	-5270
▁helm	-5271
▁inte	-5272
▁lead	-5273
▁mail	-5274
▁mart	-5275
▁ment	-5276
▁mint	-5277
▁moon	-5278
▁poem	-5279
▁prem	-5280
▁rent	-5281
▁soap	-5282
▁spar	-5283
▁taps	-5284
▁tram	-5285
asting	-5286
ellers	-5287
itions	-5288
omatic	-5289
rition	-5290
thoven	-5291
▁China	-5292
▁Motor	-5293
▁Route	-5294
▁Steph	-5295
▁bands	-5296
▁break	-5297
▁camer	-5298
▁desks	-5299
▁email	-5300
▁knobs	-5301
▁mixed	-5302
▁nails	-5303
▁place	-5304
▁poles	-5305
▁polka	-5306
▁rainy	-5307
▁rotor	-5308
▁rural	-5309
▁scarf	-5310
▁ships	-5311
▁skill	-5312
▁slice	-5313
▁sound	-5314
▁stret	-5315
▁talks	-5316
▁usage	-5317
▁users	-5318
▁vests	-5319
tenance	-5320
unction	-5321
▁Canada	-5322
▁Daniel	-5323
▁Giants	-5324
▁Museum	-5325
▁Nation	-5326
▁Series	-5327
▁Yellow	-5328
▁analog	-5329
▁blades	-5330
▁boxers	-5331
▁crowds	-5332
▁cruise	-5333
▁dispos	-5334
▁frames	-5335
▁ginger	-5336
▁hovers	-5337
▁length	-5338
▁marker	-5339
▁member	-5340
▁novels	-5341
▁poised	-5342
▁rights	-5343
▁stamps	-5344
reetings	-5345
▁Central	-5346
▁Château	-5347
▁Liberty	-5348
▁YouTube	-5349
▁balloon	-5350
▁biplane	-5351
▁booklet	-5352
▁challen	-5353
▁comfort	-5354
▁cracked	-5355
▁mannequ	-5356
▁secured	-5357
▁sliding	-5358
▁smoking	-5359
▁success	-5360
▁tequila	-5361
▁Original	-5362
▁Symphony	-5363
▁barbecue	-5364
▁benefits	-5365
▁customer	-5366
▁examines	-5367
▁listings	-5368
▁maneuver	-5369
▁purchase	-5370
▁security	-5371
▁sporting	-5372
▁surfaces	-5373
▁Beethoven	-5374
▁brochures	-5375
▁operation	-5376
▁patriotic	-5377
▁potential	-5378
▁precision	-5379
▁presented	-5380
▁staircase	-5381
▁Australian	-5382
▁creativity	-5383
▁supporting	-5384
▁bookshelves	-5385
▁thermometer	-5386
▁compartments	-5387
▁installation	-5388
▁performances	-5389
▁restrictions	-5390
▁surroundings	-5391
▁notifications	-5392
BR	-5393
DO	-5394
DR	-5395
DS	-5396
EX	-5397
FC	-5398
FL	-5399
My	-5400
TR	-5401
Red	-5402
Sup	-5403
ami	-5404
cto	-5405
den	-5406
esh	-5407
hoo	-5408
lam	-5409
lid	-5410
nda	-5411
uro	-5412
vid	-5413
▁DI	-5414
▁RE	-5415
▁SH	-5416
▁UN	-5417
▁WE	-5418
Star	-5419
acle	-5420
amin	-5421
bour	-5422
burg	-5423
chup	-5424
cise	-5425
edia	-5426
flow	-5427
gest	-5428
illy	-5429
ince	-5430
irky	-5431
ites	-5432
kees	-5433
lein	-5434
olog	-5435
pool	-5436
rodu	-5437
uary	-5438
ucky	-5439
west	-5440
yram	-5441
▁Are	-5442
▁Ast	-5443
▁BUS	-5444
▁Bac	-5445
▁Dod	-5446
▁Haw	-5447
▁Hel	-5448
▁Hum	-5449
▁III	-5450
▁Key	-5451
▁Las	-5452
▁Lin	-5453
▁Net	-5454
▁Pop	-5455
▁Ven	-5456
▁Way	-5457
▁bee	-5458
▁eat	-5459
▁rim	-5460
▁syn	-5461
▁ten	-5462
afood	-5463
aries	-5464
chest	-5465
count	-5466
ffeem	-5467
field	-5468
inner	-5469
ipped	-5470
itude	-5471
notes	-5472
peria	-5473
range	-5474
story	-5475
tered	-5476
ublic	-5477
▁Alex	-5478
▁Arch	-5479
▁Bell	-5480
▁Cola	-5481
▁Date	-5482
▁Dist	-5483
▁Food	-5484
▁Full	-5485
▁Hard	-5486
▁Hein	-5487
▁Jane	-5488
▁Kind	-5489
▁Malt	-5490
▁Pass	-5491
▁Rail	-5492
▁Rest	-5493
▁Russ	-5494
▁bill	-5495
▁burn	-5496
▁club	-5497
▁disc	-5498
▁pile	-5499
▁pots	-5500
▁puck	-5501
▁resp	-5502
▁seed	-5503
▁soup	-5504
▁surf	-5505
▁they	-5506
▁tire	-5507
▁trip	-5508
▁turf	-5509
Americ	-5510
amples	-5511
assemb	-5512
atives	-5513
atures	-5514
bility	-5515
elding	-5516
ildren	-5517
inders	-5518
ournal	-5519
patter	-5520
sticks	-5521
▁Below	-5522
▁Canon	-5523
▁Chard	-5524
▁Cream	-5525
▁Guide	-5526
▁Kirin	-5527
▁Night	-5528
▁Obama	-5529
▁Organ	-5530
▁Paris	-5531
▁Rover	-5532
▁Saint	-5533
▁Sharp	-5534
▁advis	-5535
▁apron	-5536
▁beers	-5537
▁brain	-5538
▁canop	-5539
▁error	-5540
▁gears	-5541
▁herbs	-5542
▁hills	-5543
▁hotel	-5544
▁ideal	-5545
▁login	-5546
▁lower	-5547
▁piano	-5548
▁plans	-5549
▁plush	-5550
▁point	-5551
▁pours	-5552
▁quiet	-5553
▁sword	-5554
▁tents	-5555
▁terms	-5556
▁thank	-5557
▁which	-5558
ainment	-5559
stocked	-5560
▁Design	-5561
▁Disney	-5562
▁Korean	-5563
▁Pepper	-5564
▁Police	-5565
▁Xperia	-5566
▁asking	-5567
▁awards	-5568
▁boards	-5569
▁bronze	-5570
▁circle	-5571
▁diving	-5572
▁floats	-5573
▁garage	-5574
▁houses	-5575
▁inform	-5576
▁inspir	-5577
▁kneels	-5578
▁ladder	-5579
▁lotion	-5580
▁	-5581
e	-5582
a	-5583
i	-5584
n	-5585
t	-5586
o	-5587
s	-5588
r	-5589
l	-5590
d	-5591
h	-5592
c	-5593
g	-5594
u	-5595
p	-5596
b	-5597
m	-5598
f	-5599
w	-5600
,	-5601
y	-5602
.	-5603
k	-5604
A	-5605
v	-5606
"	-5607
T	-5608
S	-5609
x	-5610
C	-5611
B	-5612
-	-5613
E	-5614
P	-5615
M	-5616
R	-5617
L	-5618
O	-5619
I	-5620
N	-5621
D	-5622
0	-5623
F	-5624
G	-5625
1	-5626
z	-5627
H	-5628
j	-5629
W	-5630
2	-5631
'	-5632
q	-5633
V	-5634
U	-5635
:	-5636
K	-5637
J	-5638
5	-5639
9	-5640
Y	-5641
3	-5642
4	-5643
7	-5644
8	-5645
6	-5646
X	-5647
Q	-5648
Z	-5649
!	-5650
&	-5651
é	-5652
;	-5653
(	-5654
)	-5655
%	-5656
$	-5657
’	-5658
”	-5659
“	-5660
/	-5661
?	-5662
°	-5663
ó	-5664
ä	-5665
ö	-5666
í	-5667
â	-5668
+	-5669
ü	-5670
#	-5671
É	-5672
è	-5673
£	-5674
ç	-5675
á	-5676
ñ	-5677
—	-5678
*	-5679
ë	-5680
ô	-5681
€	-5682
а	-5683
å	-5684
ã	-5685
т	-5686
Ä	-5687
Н	-5688
С	-5689
♥	-5690
Ê	-5691
Ü	-5692
ú	-5693
ă	-5694
А	-5695
и	-5696
н	-5697
о	-5698
|	-5699
æ	-5700
ø	-5701
И	-5702
Р	-5703
е	-5704
р	-5705
‘	-5706
¥	-5707
²	-5708
Ó	-5709
Ö	-5710
ß	-5711
ê	-5712
û	-5713
Č	-5714
č	-5715
ł	-5716
В	-5717
Е	-5718
б	-5719
з	-5720
у	-5721
❤	-5722
️	-5723
@	-5724
½	-5725
Î	-5726
Ú	-5727
à	-5728
ï	-5729
ð	-5730
ò	-5731
õ	-5732
ý	-5733
ā	-5734
Š	-5735
š	-5736
ș	-5737
Α	-5738
Γ	-5739
